#ifndef GUARDIAN_MODEL_DATA_H
#define GUARDIAN_MODEL_DATA_H

// TensorFlow Lite model, quantized and converted for the Guardian project.
// Model size: 15.84 KB

unsigned const char g_guardian_model_data[] = {
0x1c, 0x00, 0x00, 0x00, 0x54, 0x46, 0x4c, 0x33, 0x14, 0x00, 0x20, 0x00
, 0x1c, 0x00, 0x18, 0x00, 0x14, 0x00, 0x10, 0x00, 0x0c, 0x00, 0x00, 0x00
, 0x08, 0x00, 0x04, 0x00, 0x14, 0x00, 0x00, 0x00, 0x1c, 0x00, 0x00, 0x00
, 0x8c, 0x00, 0x00, 0x00, 0x04, 0x01, 0x00, 0x00, 0x84, 0x06, 0x00, 0x00
, 0x94, 0x06, 0x00, 0x00, 0x30, 0x3d, 0x00, 0x00, 0x03, 0x00, 0x00, 0x00
, 0x01, 0x00, 0x00, 0x00, 0x04, 0x00, 0x00, 0x00, 0x9e, 0xd5, 0xff, 0xff
, 0x0c, 0x00, 0x00, 0x00, 0x1c, 0x00, 0x00, 0x00, 0x3c, 0x00, 0x00, 0x00
, 0x0f, 0x00, 0x00, 0x00, 0x73, 0x65, 0x72, 0x76, 0x69, 0x6e, 0x67, 0x5f
, 0x64, 0x65, 0x66, 0x61, 0x75, 0x6c, 0x74, 0x00, 0x01, 0x00, 0x00, 0x00
, 0x04, 0x00, 0x00, 0x00, 0xb8, 0xd6, 0xff, 0xff, 0x22, 0x00, 0x00, 0x00
, 0x04, 0x00, 0x00, 0x00, 0x08, 0x00, 0x00, 0x00, 0x6f, 0x75, 0x74, 0x70
, 0x75, 0x74, 0x5f, 0x30, 0x00, 0x00, 0x00, 0x00, 0x01, 0x00, 0x00, 0x00
, 0x04, 0x00, 0x00, 0x00, 0x32, 0xd6, 0xff, 0xff, 0x04, 0x00, 0x00, 0x00
, 0x0e, 0x00, 0x00, 0x00, 0x6b, 0x65, 0x72, 0x61, 0x73, 0x5f, 0x74, 0x65
, 0x6e, 0x73, 0x6f, 0x72, 0x5f, 0x34, 0x00, 0x00, 0x03, 0x00, 0x00, 0x00
, 0x54, 0x00, 0x00, 0x00, 0x2c, 0x00, 0x00, 0x00, 0x04, 0x00, 0x00, 0x00
, 0x08, 0xd7, 0xff, 0xff, 0x55, 0x00, 0x00, 0x00, 0x04, 0x00, 0x00, 0x00
, 0x13, 0x00, 0x00, 0x00, 0x43, 0x4f, 0x4e, 0x56, 0x45, 0x52, 0x53, 0x49
, 0x4f, 0x4e, 0x5f, 0x4d, 0x45, 0x54, 0x41, 0x44, 0x41, 0x54, 0x41, 0x00
, 0x2c, 0xd7, 0xff, 0xff, 0x54, 0x00, 0x00, 0x00, 0x04, 0x00, 0x00, 0x00
, 0x13, 0x00, 0x00, 0x00, 0x6d, 0x69, 0x6e, 0x5f, 0x72, 0x75, 0x6e, 0x74
, 0x69, 0x6d, 0x65, 0x5f, 0x76, 0x65, 0x72, 0x73, 0x69, 0x6f, 0x6e, 0x00
, 0x50, 0xd7, 0xff, 0xff, 0x53, 0x00, 0x00, 0x00, 0x04, 0x00, 0x00, 0x00
, 0x13, 0x00, 0x00, 0x00, 0x6d, 0x69, 0x6e, 0x5f, 0x72, 0x75, 0x6e, 0x74
, 0x69, 0x6d, 0x65, 0x5f, 0x76, 0x65, 0x72, 0x73, 0x69, 0x6f, 0x6e, 0x00
, 0x56, 0x00, 0x00, 0x00, 0x7c, 0x05, 0x00, 0x00, 0x74, 0x05, 0x00, 0x00
, 0x5c, 0x05, 0x00, 0x00, 0x48, 0x05, 0x00, 0x00, 0x34, 0x05, 0x00, 0x00
, 0x2c, 0x05, 0x00, 0x00, 0x10, 0x05, 0x00, 0x00, 0xfc, 0x04, 0x00, 0x00
, 0xf4, 0x04, 0x00, 0x00, 0xd8, 0x04, 0x00, 0x00, 0xbc, 0x04, 0x00, 0x00
, 0xa0, 0x04, 0x00, 0x00, 0x8c, 0x04, 0x00, 0x00, 0x74, 0x04, 0x00, 0x00
, 0x60, 0x04, 0x00, 0x00, 0x58, 0x04, 0x00, 0x00, 0x50, 0x04, 0x00, 0x00
, 0x48, 0x04, 0x00, 0x00, 0x40, 0x04, 0x00, 0x00, 0x38, 0x04, 0x00, 0x00
, 0x30, 0x04, 0x00, 0x00, 0x28, 0x04, 0x00, 0x00, 0x20, 0x04, 0x00, 0x00
, 0x18, 0x04, 0x00, 0x00, 0x10, 0x04, 0x00, 0x00, 0x08, 0x04, 0x00, 0x00
, 0x00, 0x04, 0x00, 0x00, 0xf8, 0x03, 0x00, 0x00, 0xf0, 0x03, 0x00, 0x00
, 0xe8, 0x03, 0x00, 0x00, 0xe0, 0x03, 0x00, 0x00, 0xd8, 0x03, 0x00, 0x00
, 0xd0, 0x03, 0x00, 0x00, 0xc8, 0x03, 0x00, 0x00, 0xc0, 0x03, 0x00, 0x00
, 0xb8, 0x03, 0x00, 0x00, 0xb0, 0x03, 0x00, 0x00, 0xa8, 0x03, 0x00, 0x00
, 0xa0, 0x03, 0x00, 0x00, 0x98, 0x03, 0x00, 0x00, 0x90, 0x03, 0x00, 0x00
, 0x88, 0x03, 0x00, 0x00, 0x74, 0x03, 0x00, 0x00, 0x6c, 0x03, 0x00, 0x00
, 0x64, 0x03, 0x00, 0x00, 0x5c, 0x03, 0x00, 0x00, 0x54, 0x03, 0x00, 0x00
, 0x4c, 0x03, 0x00, 0x00, 0x44, 0x03, 0x00, 0x00, 0x3c, 0x03, 0x00, 0x00
, 0x34, 0x03, 0x00, 0x00, 0x2c, 0x03, 0x00, 0x00, 0x24, 0x03, 0x00, 0x00
, 0x1c, 0x03, 0x00, 0x00, 0xec, 0x02, 0x00, 0x00, 0x9c, 0x02, 0x00, 0x00
, 0x8c, 0x01, 0x00, 0x00, 0x84, 0x01, 0x00, 0x00, 0x7c, 0x01, 0x00, 0x00
, 0x74, 0x01, 0x00, 0x00, 0x6c, 0x01, 0x00, 0x00, 0x64, 0x01, 0x00, 0x00
, 0x5c, 0x01, 0x00, 0x00, 0x54, 0x01, 0x00, 0x00, 0x4c, 0x01, 0x00, 0x00
, 0x44, 0x01, 0x00, 0x00, 0x3c, 0x01, 0x00, 0x00, 0x34, 0x01, 0x00, 0x00
, 0x2c, 0x01, 0x00, 0x00, 0x24, 0x01, 0x00, 0x00, 0x1c, 0x01, 0x00, 0x00
, 0x14, 0x01, 0x00, 0x00, 0x0c, 0x01, 0x00, 0x00, 0x04, 0x01, 0x00, 0x00
, 0xfc, 0x00, 0x00, 0x00, 0xf4, 0x00, 0x00, 0x00, 0xec, 0x00, 0x00, 0x00
, 0xe4, 0x00, 0x00, 0x00, 0xdc, 0x00, 0x00, 0x00, 0xd4, 0x00, 0x00, 0x00
, 0xcc, 0x00, 0x00, 0x00, 0xc4, 0x00, 0x00, 0x00, 0xbc, 0x00, 0x00, 0x00
, 0x9c, 0x00, 0x00, 0x00, 0x7c, 0x00, 0x00, 0x00, 0x04, 0x00, 0x00, 0x00
, 0x26, 0xd8, 0xff, 0xff, 0x04, 0x00, 0x00, 0x00, 0x68, 0x00, 0x00, 0x00
, 0x0c, 0x00, 0x00, 0x00, 0x08, 0x00, 0x0e, 0x00, 0x08, 0x00, 0x04, 0x00
, 0x08, 0x00, 0x00, 0x00, 0x14, 0x00, 0x00, 0x00, 0x30, 0x00, 0x00, 0x00
, 0x00, 0x00, 0x0a, 0x00, 0x0c, 0x00, 0x08, 0x00, 0x00, 0x00, 0x07, 0x00
, 0x0a, 0x00, 0x00, 0x00, 0x00, 0x00, 0x00, 0x01, 0x04, 0x00, 0x00, 0x00
, 0x01, 0x00, 0x00, 0x00, 0xeb, 0x03, 0x00, 0x00, 0x0c, 0x00, 0x18, 0x00
, 0x14, 0x00, 0x10, 0x00, 0x0c, 0x00, 0x04, 0x00, 0x0c, 0x00, 0x00, 0x00
, 0xa3, 0x59, 0xab, 0x3d, 0x11, 0xbf, 0x24, 0xdf, 0x02, 0x00, 0x00, 0x00
, 0x02, 0x00, 0x00, 0x00, 0x04, 0x00, 0x00, 0x00, 0x06, 0x00, 0x00, 0x00
, 0x32, 0x2e, 0x31, 0x39, 0x2e, 0x30, 0x00, 0x00, 0x9a, 0xd8, 0xff, 0xff
, 0x04, 0x00, 0x00, 0x00, 0x10, 0x00, 0x00, 0x00, 0x00, 0x00, 0x00, 0x00
, 0x00, 0x00, 0x00, 0x00, 0x00, 0x00, 0x00, 0x00, 0x00, 0x00, 0x00, 0x00
, 0xb6, 0xd8, 0xff, 0xff, 0x04, 0x00, 0x00, 0x00, 0x10, 0x00, 0x00, 0x00
, 0x32, 0x2e, 0x35, 0x2e, 0x30, 0x00, 0x00, 0x00, 0x00, 0x00, 0x00, 0x00
, 0x00, 0x00, 0x00, 0x00, 0x10, 0xc6, 0xff, 0xff, 0x14, 0xc6, 0xff, 0xff
, 0x18, 0xc6, 0xff, 0xff, 0x1c, 0xc6, 0xff, 0xff, 0x20, 0xc6, 0xff, 0xff
, 0x24, 0xc6, 0xff, 0xff, 0x28, 0xc6, 0xff, 0xff, 0x2c, 0xc6, 0xff, 0xff
, 0x30, 0xc6, 0xff, 0xff, 0x34, 0xc6, 0xff, 0xff, 0x38, 0xc6, 0xff, 0xff
, 0x3c, 0xc6, 0xff, 0xff, 0x40, 0xc6, 0xff, 0xff, 0x44, 0xc6, 0xff, 0xff
, 0x48, 0xc6, 0xff, 0xff, 0x4c, 0xc6, 0xff, 0xff, 0x50, 0xc6, 0xff, 0xff
, 0x54, 0xc6, 0xff, 0xff, 0x58, 0xc6, 0xff, 0xff, 0x5c, 0xc6, 0xff, 0xff
, 0x60, 0xc6, 0xff, 0xff, 0x64, 0xc6, 0xff, 0xff, 0x68, 0xc6, 0xff, 0xff
, 0x6c, 0xc6, 0xff, 0xff, 0x70, 0xc6, 0xff, 0xff, 0x74, 0xc6, 0xff, 0xff
, 0x3a, 0xd9, 0xff, 0xff, 0x04, 0x00, 0x00, 0x00, 0x00, 0x01, 0x00, 0x00
, 0xac, 0xe6, 0x99, 0xfb, 0x26, 0x81, 0x42, 0xcd, 0x81, 0xb7, 0xe5, 0x52
, 0x17, 0x08, 0xf9, 0x83, 0xe9, 0x5c, 0xb7, 0xad, 0x57, 0x7f, 0xae, 0xea
, 0xfa, 0xa2, 0xf1, 0xfb, 0x5d, 0x4f, 0x81, 0x5a, 0xf2, 0x03, 0xb7, 0x81
, 0xc2, 0x32, 0x01, 0x46, 0xf1, 0x39, 0x6b, 0x32, 0x81, 0x96, 0x00, 0xe5
, 0x1a, 0x15, 0x2a, 0x41, 0x7f, 0x04, 0xaa, 0x11, 0xe8, 0xb1, 0x9f, 0x09
, 0x48, 0x81, 0x99, 0x1a, 0x81, 0x98, 0x22, 0xf4, 0x62, 0xe8, 0x3c, 0xf6
, 0xc4, 0xfe, 0xe3, 0x35, 0x30, 0x0c, 0x61, 0x81, 0x8a, 0x49, 0xeb, 0x35
, 0x03, 0x2d, 0xf3, 0x81, 0x4f, 0xef, 0xfd, 0x81, 0x42, 0xcb, 0xe1, 0xbe
, 0xab, 0xfc, 0x1e, 0x98, 0xc9, 0xdc, 0x81, 0xdd, 0x3a, 0x81, 0x46, 0x27
, 0xa9, 0x85, 0xdc, 0x9a, 0x81, 0xcd, 0xe6, 0xf6, 0x90, 0x44, 0x91, 0x21
, 0x81, 0x30, 0x3b, 0xcc, 0x76, 0xe0, 0x96, 0x64, 0x28, 0xb9, 0x37, 0x19
, 0x13, 0x22, 0x22, 0x7f, 0x2a, 0xe7, 0x7f, 0x14, 0xde, 0x2d, 0xde, 0x0d
, 0x0c, 0x39, 0x0e, 0xfa, 0xf7, 0x3d, 0x81, 0x31, 0x20, 0x15, 0x0d, 0x4b
, 0xbe, 0x36, 0x81, 0x18, 0xe1, 0xca, 0xb8, 0xeb, 0x21, 0x9d, 0x40, 0x81
, 0x7f, 0xf3, 0x1b, 0x14, 0xfe, 0x21, 0xa5, 0x2a, 0x9d, 0x42, 0xe0, 0xac
, 0x18, 0xba, 0x27, 0x81, 0x65, 0x81, 0x34, 0x9d, 0x0c, 0x75, 0xc6, 0xe8
, 0x81, 0xeb, 0xb8, 0x1d, 0x38, 0xfc, 0x49, 0xa7, 0xca, 0xde, 0xd8, 0x26
, 0x0d, 0xfc, 0x7f, 0xe4, 0x06, 0x7f, 0xc6, 0xb6, 0x7f, 0xc3, 0x5f, 0x94
, 0x92, 0xc1, 0x81, 0xab, 0xcd, 0xab, 0xf9, 0x5d, 0x89, 0xb2, 0x9f, 0x81
, 0x15, 0x45, 0xcf, 0xbc, 0xd3, 0xc7, 0x81, 0xf8, 0x25, 0x0f, 0xe5, 0x09
, 0xa9, 0xe1, 0x82, 0xc1, 0xe7, 0x48, 0xe0, 0x7f, 0x81, 0xe1, 0x08, 0x0c
, 0x1d, 0xc7, 0x0e, 0x33, 0x46, 0xda, 0xff, 0xff, 0x04, 0x00, 0x00, 0x00
, 0x40, 0x00, 0x00, 0x00, 0x7f, 0xdc, 0x7f, 0x2c, 0x81, 0x06, 0xf5, 0x7f
, 0x62, 0x81, 0x81, 0x22, 0x7f, 0x4b, 0x63, 0x7f, 0x6f, 0x7f, 0x7f, 0xad
, 0x81, 0x65, 0x6a, 0x81, 0x7f, 0xec, 0x7f, 0x1d, 0x7f, 0x15, 0xd3, 0x7f
, 0x7f, 0xff, 0x81, 0x78, 0x42, 0x81, 0x7f, 0xbd, 0x81, 0x6c, 0x7f, 0x01
, 0x81, 0xe4, 0x7f, 0x02, 0x3a, 0x7f, 0x7f, 0xcc, 0xf2, 0x7f, 0x7f, 0x1c
, 0x7f, 0x37, 0x7f, 0x47, 0x7f, 0x41, 0x7f, 0xe5, 0x92, 0xda, 0xff, 0xff
, 0x04, 0x00, 0x00, 0x00, 0x20, 0x00, 0x00, 0x00, 0xab, 0x96, 0x96, 0xad
, 0xa5, 0xa8, 0xad, 0x9a, 0x7e, 0x64, 0x68, 0x7f, 0x75, 0x7e, 0x7f, 0x68
, 0x86, 0x86, 0x8e, 0x9b, 0x80, 0x87, 0x98, 0x89, 0xbe, 0x9c, 0xa5, 0xc4
, 0xbc, 0xc7, 0xec, 0x9a, 0xfc, 0xc7, 0xff, 0xff, 0x00, 0xc8, 0xff, 0xff
, 0x04, 0xc8, 0xff, 0xff, 0x08, 0xc8, 0xff, 0xff, 0x0c, 0xc8, 0xff, 0xff
, 0x10, 0xc8, 0xff, 0xff, 0x14, 0xc8, 0xff, 0xff, 0x18, 0xc8, 0xff, 0xff
, 0x1c, 0xc8, 0xff, 0xff, 0x20, 0xc8, 0xff, 0xff, 0x24, 0xc8, 0xff, 0xff
, 0xea, 0xda, 0xff, 0xff, 0x04, 0x00, 0x00, 0x00, 0x04, 0x00, 0x00, 0x00
, 0x1e, 0x00, 0x00, 0x00, 0x38, 0xc8, 0xff, 0xff, 0x3c, 0xc8, 0xff, 0xff
, 0x40, 0xc8, 0xff, 0xff, 0x44, 0xc8, 0xff, 0xff, 0x48, 0xc8, 0xff, 0xff
, 0x4c, 0xc8, 0xff, 0xff, 0x50, 0xc8, 0xff, 0xff, 0x54, 0xc8, 0xff, 0xff
, 0x58, 0xc8, 0xff, 0xff, 0x5c, 0xc8, 0xff, 0xff, 0x60, 0xc8, 0xff, 0xff
, 0x64, 0xc8, 0xff, 0xff, 0x68, 0xc8, 0xff, 0xff, 0x6c, 0xc8, 0xff, 0xff
, 0x70, 0xc8, 0xff, 0xff, 0x74, 0xc8, 0xff, 0xff, 0x78, 0xc8, 0xff, 0xff
, 0x7c, 0xc8, 0xff, 0xff, 0x80, 0xc8, 0xff, 0xff, 0x84, 0xc8, 0xff, 0xff
, 0x88, 0xc8, 0xff, 0xff, 0x8c, 0xc8, 0xff, 0xff, 0x90, 0xc8, 0xff, 0xff
, 0x94, 0xc8, 0xff, 0xff, 0x98, 0xc8, 0xff, 0xff, 0x9c, 0xc8, 0xff, 0xff
, 0xa0, 0xc8, 0xff, 0xff, 0x66, 0xdb, 0xff, 0xff, 0x04, 0x00, 0x00, 0x00
, 0x01, 0x00, 0x00, 0x00, 0x00, 0x00, 0x00, 0x00, 0x76, 0xdb, 0xff, 0xff
, 0x04, 0x00, 0x00, 0x00, 0x08, 0x00, 0x00, 0x00, 0x5f, 0x7e, 0x31, 0x44
, 0x95, 0x76, 0x81, 0x12, 0x8a, 0xdb, 0xff, 0xff, 0x04, 0x00, 0x00, 0x00
, 0x04, 0x00, 0x00, 0x00, 0xb7, 0xfc, 0xff, 0xff, 0x9a, 0xdb, 0xff, 0xff
, 0x04, 0x00, 0x00, 0x00, 0x0c, 0x00, 0x00, 0x00, 0x01, 0x00, 0x00, 0x00
, 0x01, 0x00, 0x00, 0x00, 0x01, 0x00, 0x00, 0x00, 0xb2, 0xdb, 0xff, 0xff
, 0x04, 0x00, 0x00, 0x00, 0x0c, 0x00, 0x00, 0x00, 0x00, 0x00, 0x00, 0x00
, 0x00, 0x00, 0x00, 0x00, 0x08, 0x00, 0x00, 0x00, 0xca, 0xdb, 0xff, 0xff
, 0x04, 0x00, 0x00, 0x00, 0x0c, 0x00, 0x00, 0x00, 0xff, 0xff, 0xff, 0xff
, 0x00, 0x00, 0x00, 0x00, 0x00, 0x00, 0x00, 0x00, 0x20, 0xc9, 0xff, 0xff
, 0xe6, 0xdb, 0xff, 0xff, 0x04, 0x00, 0x00, 0x00, 0x04, 0x00, 0x00, 0x00
, 0x08, 0x00, 0x00, 0x00, 0xf6, 0xdb, 0xff, 0xff, 0x04, 0x00, 0x00, 0x00
, 0x0c, 0x00, 0x00, 0x00, 0x01, 0x00, 0x00, 0x00, 0x00, 0x00, 0x00, 0x00
, 0x02, 0x00, 0x00, 0x00, 0x4c, 0xc9, 0xff, 0xff, 0x12, 0xdc, 0xff, 0xff
, 0x04, 0x00, 0x00, 0x00, 0x04, 0x00, 0x00, 0x00, 0x00, 0x00, 0x00, 0x00
, 0x22, 0xdc, 0xff, 0xff, 0x04, 0x00, 0x00, 0x00, 0x04, 0x00, 0x00, 0x00
, 0x01, 0x00, 0x00, 0x00, 0x32, 0xdc, 0xff, 0xff, 0x04, 0x00, 0x00, 0x00
, 0x08, 0x00, 0x00, 0x00, 0xff, 0xff, 0xff, 0xff, 0x08, 0x00, 0x00, 0x00
, 0x84, 0xc9, 0xff, 0xff, 0x88, 0xc9, 0xff, 0xff, 0x0f, 0x00, 0x00, 0x00
, 0x4d, 0x4c, 0x49, 0x52, 0x20, 0x43, 0x6f, 0x6e, 0x76, 0x65, 0x72, 0x74
, 0x65, 0x64, 0x2e, 0x00, 0x03, 0x00, 0x00, 0x00, 0x04, 0x21, 0x00, 0x00
, 0x70, 0x1c, 0x00, 0x00, 0x04, 0x00, 0x00, 0x00, 0x16, 0xdf, 0xff, 0xff
, 0x14, 0x00, 0x00, 0x00, 0x38, 0x00, 0x00, 0x00, 0x30, 0x05, 0x00, 0x00
, 0x48, 0x05, 0x00, 0x00, 0x60, 0x05, 0x00, 0x00, 0x22, 0x00, 0x00, 0x00
, 0x73, 0x65, 0x71, 0x75, 0x65, 0x6e, 0x74, 0x69, 0x61, 0x6c, 0x5f, 0x31
, 0x5f, 0x31, 0x2f, 0x6c, 0x73, 0x74, 0x6d, 0x5f, 0x31, 0x5f, 0x31, 0x2f
, 0x77, 0x68, 0x69, 0x6c, 0x65, 0x5f, 0x62, 0x6f, 0x64, 0x79, 0x00, 0x00
, 0x17, 0x00, 0x00, 0x00, 0xdc, 0x04, 0x00, 0x00, 0xbc, 0x04, 0x00, 0x00
, 0x9c, 0x04, 0x00, 0x00, 0x68, 0x04, 0x00, 0x00, 0x30, 0x04, 0x00, 0x00
, 0xfc, 0x03, 0x00, 0x00, 0xc8, 0x03, 0x00, 0x00, 0x90, 0x03, 0x00, 0x00
, 0x5c, 0x03, 0x00, 0x00, 0x28, 0x03, 0x00, 0x00, 0xe4, 0x02, 0x00, 0x00
, 0xc0, 0x02, 0x00, 0x00, 0x9c, 0x02, 0x00, 0x00, 0x68, 0x02, 0x00, 0x00
, 0x44, 0x02, 0x00, 0x00, 0x20, 0x02, 0x00, 0x00, 0xec, 0x01, 0x00, 0x00
, 0xb8, 0x01, 0x00, 0x00, 0x94, 0x01, 0x00, 0x00, 0x70, 0x01, 0x00, 0x00
, 0x3c, 0x01, 0x00, 0x00, 0x18, 0x01, 0x00, 0x00, 0x04, 0x00, 0x00, 0x00
, 0x54, 0xdc, 0xff, 0xff, 0x10, 0x00, 0x00, 0x00, 0xf0, 0x00, 0x00, 0x00
, 0xf4, 0x00, 0x00, 0x00, 0x13, 0x00, 0x00, 0x00, 0xe0, 0x00, 0x00, 0x00
, 0x11, 0x54, 0x65, 0x6e, 0x73, 0x6f, 0x72, 0x4c, 0x69, 0x73, 0x74, 0x53
, 0x65, 0x74, 0x49, 0x74, 0x65, 0x6d, 0x00, 0xc3, 0x12, 0x11, 0x54, 0x65
, 0x6e, 0x73, 0x6f, 0x72, 0x4c, 0x69, 0x73, 0x74, 0x53, 0x65, 0x74, 0x49
, 0x74, 0x65, 0x6d, 0x1a, 0x00, 0x1a, 0x00, 0x1a, 0x00, 0x2a, 0x13, 0x0a
, 0x0d, 0x65, 0x6c, 0x65, 0x6d, 0x65, 0x6e, 0x74, 0x5f, 0x64, 0x74, 0x79
, 0x70, 0x65, 0x12, 0x02, 0x30, 0x01, 0x2a, 0x23, 0x0a, 0x1d, 0x72, 0x65
, 0x73, 0x69, 0x7a, 0x65, 0x5f, 0x69, 0x66, 0x5f, 0x69, 0x6e, 0x64, 0x65
, 0x78, 0x5f, 0x6f, 0x75, 0x74, 0x5f, 0x6f, 0x66, 0x5f, 0x62, 0x6f, 0x75
, 0x6e, 0x64, 0x73, 0x12, 0x02, 0x28, 0x00, 0x32, 0x6e, 0x0a, 0x42, 0x73
, 0x65, 0x71, 0x75, 0x65, 0x6e, 0x74, 0x69, 0x61, 0x6c, 0x5f, 0x31, 0x5f
, 0x31, 0x2f, 0x6c, 0x73, 0x74, 0x6d, 0x5f, 0x31, 0x5f, 0x31, 0x2f, 0x77
, 0x68, 0x69, 0x6c, 0x65, 0x2f, 0x54, 0x65, 0x6e, 0x73, 0x6f, 0x72, 0x41
, 0x72, 0x72, 0x61, 0x79, 0x56, 0x32, 0x57, 0x72, 0x69, 0x74, 0x65, 0x2f
, 0x54, 0x65, 0x6e, 0x73, 0x6f, 0x72, 0x4c, 0x69, 0x73, 0x74, 0x53, 0x65
, 0x74, 0x49, 0x74, 0x65, 0x6d, 0x12, 0x28, 0x73, 0x65, 0x71, 0x75, 0x65
, 0x6e, 0x74, 0x69, 0x61, 0x6c, 0x5f, 0x31, 0x5f, 0x31, 0x5f, 0x6c, 0x73
, 0x74, 0x6d, 0x5f, 0x31, 0x5f, 0x31, 0x5f, 0x77, 0x68, 0x69, 0x6c, 0x65
, 0x5f, 0x62, 0x6f, 0x64, 0x79, 0x5f, 0x34, 0x30, 0x39, 0x38, 0x36, 0x00
, 0x02, 0xd8, 0xc6, 0x14, 0x14, 0x04, 0x28, 0x01, 0x01, 0x00, 0x00, 0x00
, 0x24, 0x00, 0x00, 0x00, 0x03, 0x00, 0x00, 0x00, 0x02, 0x00, 0x00, 0x00
, 0x07, 0x00, 0x00, 0x00, 0x23, 0x00, 0x00, 0x00, 0xde, 0xdd, 0xff, 0xff
, 0x0c, 0x00, 0x00, 0x00, 0x10, 0x00, 0x00, 0x00, 0x05, 0x00, 0x00, 0x00
, 0x01, 0x00, 0x00, 0x00, 0x23, 0x00, 0x00, 0x00, 0x01, 0x00, 0x00, 0x00
, 0x22, 0x00, 0x00, 0x00, 0xe6, 0xdc, 0xff, 0xff, 0x14, 0x00, 0x00, 0x00
, 0x00, 0x00, 0x00, 0x15, 0x10, 0x00, 0x00, 0x00, 0x14, 0x00, 0x00, 0x00
, 0x11, 0x00, 0x00, 0x00, 0x98, 0xcb, 0xff, 0xff, 0x01, 0x00, 0x00, 0x00
, 0x22, 0x00, 0x00, 0x00, 0x02, 0x00, 0x00, 0x00, 0x1c, 0x00, 0x00, 0x00
, 0x21, 0x00, 0x00, 0x00, 0x2e, 0xde, 0xff, 0xff, 0x0c, 0x00, 0x00, 0x00
, 0x10, 0x00, 0x00, 0x00, 0x12, 0x00, 0x00, 0x00, 0x01, 0x00, 0x00, 0x00
, 0x21, 0x00, 0x00, 0x00, 0x01, 0x00, 0x00, 0x00, 0x1f, 0x00, 0x00, 0x00
, 0x4e, 0xde, 0xff, 0xff, 0x0c, 0x00, 0x00, 0x00, 0x10, 0x00, 0x00, 0x00
, 0x05, 0x00, 0x00, 0x00, 0x01, 0x00, 0x00, 0x00, 0x20, 0x00, 0x00, 0x00
, 0x01, 0x00, 0x00, 0x00, 0x1f, 0x00, 0x00, 0x00, 0x56, 0xdd, 0xff, 0xff
, 0x14, 0x00, 0x00, 0x00, 0x00, 0x00, 0x00, 0x0b, 0x10, 0x00, 0x00, 0x00
, 0x14, 0x00, 0x00, 0x00, 0x0e, 0x00, 0x00, 0x00, 0x08, 0xcc, 0xff, 0xff
, 0x01, 0x00, 0x00, 0x00, 0x1f, 0x00, 0x00, 0x00, 0x02, 0x00, 0x00, 0x00
, 0x1b, 0x00, 0x00, 0x00, 0x1e, 0x00, 0x00, 0x00, 0x86, 0xdd, 0xff, 0xff
, 0x14, 0x00, 0x00, 0x00, 0x00, 0x00, 0x00, 0x15, 0x10, 0x00, 0x00, 0x00
, 0x14, 0x00, 0x00, 0x00, 0x11, 0x00, 0x00, 0x00, 0x38, 0xcc, 0xff, 0xff
, 0x01, 0x00, 0x00, 0x00, 0x1e, 0x00, 0x00, 0x00, 0x02, 0x00, 0x00, 0x00
, 0x19, 0x00, 0x00, 0x00, 0x1d, 0x00, 0x00, 0x00, 0xce, 0xde, 0xff, 0xff
, 0x0c, 0x00, 0x00, 0x00, 0x10, 0x00, 0x00, 0x00, 0x12, 0x00, 0x00, 0x00
, 0x01, 0x00, 0x00, 0x00, 0x1d, 0x00, 0x00, 0x00, 0x01, 0x00, 0x00, 0x00
, 0x17, 0x00, 0x00, 0x00, 0xee, 0xde, 0xff, 0xff, 0x0c, 0x00, 0x00, 0x00
, 0x10, 0x00, 0x00, 0x00, 0x0b, 0x00, 0x00, 0x00, 0x01, 0x00, 0x00, 0x00
, 0x1c, 0x00, 0x00, 0x00, 0x01, 0x00, 0x00, 0x00, 0x18, 0x00, 0x00, 0x00
, 0xf6, 0xdd, 0xff, 0xff, 0x14, 0x00, 0x00, 0x00, 0x00, 0x00, 0x00, 0x15
, 0x10, 0x00, 0x00, 0x00, 0x14, 0x00, 0x00, 0x00, 0x11, 0x00, 0x00, 0x00
, 0xa8, 0xcc, 0xff, 0xff, 0x01, 0x00, 0x00, 0x00, 0x1b, 0x00, 0x00, 0x00
, 0x02, 0x00, 0x00, 0x00, 0x1a, 0x00, 0x00, 0x00, 0x0c, 0x00, 0x00, 0x00
, 0x3e, 0xdf, 0xff, 0xff, 0x0c, 0x00, 0x00, 0x00, 0x10, 0x00, 0x00, 0x00
, 0x0b, 0x00, 0x00, 0x00, 0x01, 0x00, 0x00, 0x00, 0x1a, 0x00, 0x00, 0x00
, 0x01, 0x00, 0x00, 0x00, 0x16, 0x00, 0x00, 0x00, 0x5e, 0xdf, 0xff, 0xff
, 0x0c, 0x00, 0x00, 0x00, 0x10, 0x00, 0x00, 0x00, 0x0b, 0x00, 0x00, 0x00
, 0x01, 0x00, 0x00, 0x00, 0x19, 0x00, 0x00, 0x00, 0x01, 0x00, 0x00, 0x00
, 0x15, 0x00, 0x00, 0x00, 0x66, 0xde, 0xff, 0xff, 0x14, 0x00, 0x00, 0x00
, 0x00, 0x00, 0x00, 0x23, 0x14, 0x00, 0x00, 0x00, 0x24, 0x00, 0x00, 0x00
, 0x10, 0x00, 0x00, 0x00, 0xda, 0xdf, 0xff, 0xff, 0x04, 0x00, 0x00, 0x00
, 0x04, 0x00, 0x00, 0x00, 0x15, 0x00, 0x00, 0x00, 0x16, 0x00, 0x00, 0x00
, 0x17, 0x00, 0x00, 0x00, 0x18, 0x00, 0x00, 0x00, 0x02, 0x00, 0x00, 0x00
, 0x06, 0x00, 0x00, 0x00, 0x14, 0x00, 0x00, 0x00, 0xa6, 0xde, 0xff, 0xff
, 0x14, 0x00, 0x00, 0x00, 0x00, 0x00, 0x00, 0x0b, 0x10, 0x00, 0x00, 0x00
, 0x14, 0x00, 0x00, 0x00, 0x0e, 0x00, 0x00, 0x00, 0x58, 0xcd, 0xff, 0xff
, 0x01, 0x00, 0x00, 0x00, 0x14, 0x00, 0x00, 0x00, 0x02, 0x00, 0x00, 0x00
, 0x13, 0x00, 0x00, 0x00, 0x08, 0x00, 0x00, 0x00, 0xd6, 0xde, 0xff, 0xff
, 0x14, 0x00, 0x00, 0x00, 0x00, 0x00, 0x00, 0x0b, 0x10, 0x00, 0x00, 0x00
, 0x14, 0x00, 0x00, 0x00, 0x0e, 0x00, 0x00, 0x00, 0x88, 0xcd, 0xff, 0xff
, 0x01, 0x00, 0x00, 0x00, 0x13, 0x00, 0x00, 0x00, 0x02, 0x00, 0x00, 0x00
, 0x12, 0x00, 0x00, 0x00, 0x0f, 0x00, 0x00, 0x00, 0x06, 0xdf, 0xff, 0xff
, 0x14, 0x00, 0x00, 0x00, 0x00, 0x00, 0x00, 0x08, 0x10, 0x00, 0x00, 0x00
, 0x14, 0x00, 0x00, 0x00, 0x0a, 0x00, 0x00, 0x00, 0xb8, 0xcd, 0xff, 0xff
, 0x01, 0x00, 0x00, 0x00, 0x12, 0x00, 0x00, 0x00, 0x03, 0x00, 0x00, 0x00
, 0x11, 0x00, 0x00, 0x00, 0x09, 0x00, 0x00, 0x00, 0xff, 0xff, 0xff, 0xff
, 0x3a, 0xdf, 0xff, 0xff, 0x14, 0x00, 0x00, 0x00, 0x00, 0x00, 0x00, 0x17
, 0x10, 0x00, 0x00, 0x00, 0x14, 0x00, 0x00, 0x00, 0x0f, 0x00, 0x00, 0x00
, 0xec, 0xcd, 0xff, 0xff, 0x01, 0x00, 0x00, 0x00, 0x11, 0x00, 0x00, 0x00
, 0x02, 0x00, 0x00, 0x00, 0x0d, 0x00, 0x00, 0x00, 0x01, 0x00, 0x00, 0x00
, 0x6a, 0xdf, 0xff, 0xff, 0x14, 0x00, 0x00, 0x00, 0x00, 0x00, 0x00, 0x0b
, 0x10, 0x00, 0x00, 0x00, 0x14, 0x00, 0x00, 0x00, 0x0e, 0x00, 0x00, 0x00
, 0x1c, 0xce, 0xff, 0xff, 0x01, 0x00, 0x00, 0x00, 0x10, 0x00, 0x00, 0x00
, 0x02, 0x00, 0x00, 0x00, 0x00, 0x00, 0x00, 0x00, 0x06, 0x00, 0x00, 0x00
, 0x9a, 0xdf, 0xff, 0xff, 0x14, 0x00, 0x00, 0x00, 0x00, 0x00, 0x00, 0x08
, 0x10, 0x00, 0x00, 0x00, 0x14, 0x00, 0x00, 0x00, 0x0a, 0x00, 0x00, 0x00
, 0x4c, 0xce, 0xff, 0xff, 0x01, 0x00, 0x00, 0x00, 0x0f, 0x00, 0x00, 0x00
, 0x03, 0x00, 0x00, 0x00, 0x0b, 0x00, 0x00, 0x00, 0x0a, 0x00, 0x00, 0x00
, 0xff, 0xff, 0xff, 0xff, 0xce, 0xdf, 0xff, 0xff, 0x14, 0x00, 0x00, 0x00
, 0x00, 0x00, 0x00, 0x0b, 0x10, 0x00, 0x00, 0x00, 0x14, 0x00, 0x00, 0x00
, 0x0e, 0x00, 0x00, 0x00, 0x80, 0xce, 0xff, 0xff, 0x01, 0x00, 0x00, 0x00
, 0x0e, 0x00, 0x00, 0x00, 0x02, 0x00, 0x00, 0x00, 0x01, 0x00, 0x00, 0x00
, 0x06, 0x00, 0x00, 0x00, 0xb6, 0xdf, 0xff, 0xff, 0x08, 0x00, 0x00, 0x00
, 0x0c, 0x00, 0x00, 0x00, 0x01, 0x00, 0x00, 0x00, 0x0d, 0x00, 0x00, 0x00
, 0x01, 0x00, 0x00, 0x00, 0x05, 0x00, 0x00, 0x00, 0xd2, 0xdf, 0xff, 0xff
, 0x08, 0x00, 0x00, 0x00, 0x0c, 0x00, 0x00, 0x00, 0x01, 0x00, 0x00, 0x00
, 0x0c, 0x00, 0x00, 0x00, 0x01, 0x00, 0x00, 0x00, 0x04, 0x00, 0x00, 0x00
, 0xee, 0xdf, 0xff, 0xff, 0x08, 0x00, 0x00, 0x00, 0x0c, 0x00, 0x00, 0x00
, 0x01, 0x00, 0x00, 0x00, 0x0b, 0x00, 0x00, 0x00, 0x01, 0x00, 0x00, 0x00
, 0x03, 0x00, 0x00, 0x00, 0x06, 0x00, 0x00, 0x00, 0x10, 0x00, 0x00, 0x00
, 0x0e, 0x00, 0x00, 0x00, 0x24, 0x00, 0x00, 0x00, 0x23, 0x00, 0x00, 0x00
, 0x20, 0x00, 0x00, 0x00, 0x05, 0x00, 0x00, 0x00, 0x06, 0x00, 0x00, 0x00
, 0x00, 0x00, 0x00, 0x00, 0x01, 0x00, 0x00, 0x00, 0x02, 0x00, 0x00, 0x00
, 0x03, 0x00, 0x00, 0x00, 0x04, 0x00, 0x00, 0x00, 0x05, 0x00, 0x00, 0x00
, 0x25, 0x00, 0x00, 0x00, 0xa0, 0x16, 0x00, 0x00, 0x4c, 0x16, 0x00, 0x00
, 0xd4, 0x15, 0x00, 0x00, 0x6c, 0x15, 0x00, 0x00, 0x04, 0x15, 0x00, 0x00
, 0x94, 0x14, 0x00, 0x00, 0x54, 0x14, 0x00, 0x00, 0x14, 0x14, 0x00, 0x00
, 0xb0, 0x13, 0x00, 0x00, 0xd4, 0x11, 0x00, 0x00, 0xf8, 0x0f, 0x00, 0x00
, 0x84, 0x0f, 0x00, 0x00, 0x10, 0x0f, 0x00, 0x00, 0x98, 0x0e, 0x00, 0x00
, 0x48, 0x0e, 0x00, 0x00, 0xb4, 0x0d, 0x00, 0x00, 0x64, 0x0d, 0x00, 0x00
, 0xbc, 0x0c, 0x00, 0x00, 0x28, 0x0c, 0x00, 0x00, 0x94, 0x0b, 0x00, 0x00
, 0x00, 0x0b, 0x00, 0x00, 0xdc, 0x09, 0x00, 0x00, 0xb8, 0x08, 0x00, 0x00
, 0x94, 0x07, 0x00, 0x00, 0x70, 0x06, 0x00, 0x00, 0xdc, 0x05, 0x00, 0x00
, 0x48, 0x05, 0x00, 0x00, 0xb4, 0x04, 0x00, 0x00, 0x20, 0x04, 0x00, 0x00
, 0x8c, 0x03, 0x00, 0x00, 0xf8, 0x02, 0x00, 0x00, 0x64, 0x02, 0x00, 0x00
, 0x14, 0x02, 0x00, 0x00, 0x7c, 0x01, 0x00, 0x00, 0xe8, 0x00, 0x00, 0x00
, 0x98, 0x00, 0x00, 0x00, 0x04, 0x00, 0x00, 0x00, 0xfc, 0xd4, 0xff, 0xff
, 0x1c, 0x00, 0x00, 0x00, 0x00, 0x00, 0x00, 0x01, 0x34, 0x00, 0x00, 0x00
, 0x34, 0x00, 0x00, 0x00, 0x52, 0x00, 0x00, 0x00, 0x00, 0x00, 0x00, 0x0e
, 0x70, 0x00, 0x00, 0x00, 0x01, 0x00, 0x00, 0x00, 0x04, 0x00, 0x00, 0x00
, 0xe2, 0xd4, 0xff, 0xff, 0x00, 0x00, 0x00, 0x01, 0x04, 0x00, 0x00, 0x00
, 0x02, 0x00, 0x00, 0x00, 0x00, 0x00, 0x00, 0x00, 0x08, 0x00, 0x00, 0x00
, 0xfc, 0xcf, 0xff, 0xff, 0x42, 0x00, 0x00, 0x00, 0x73, 0x65, 0x71, 0x75
, 0x65, 0x6e, 0x74, 0x69, 0x61, 0x6c, 0x5f, 0x31, 0x5f, 0x31, 0x2f, 0x6c
, 0x73, 0x74, 0x6d, 0x5f, 0x31, 0x5f, 0x31, 0x2f, 0x77, 0x68, 0x69, 0x6c
, 0x65, 0x2f, 0x54, 0x65, 0x6e, 0x73, 0x6f, 0x72, 0x41, 0x72, 0x72, 0x61
, 0x79, 0x56, 0x32, 0x57, 0x72, 0x69, 0x74, 0x65, 0x2f, 0x54, 0x65, 0x6e
, 0x73, 0x6f, 0x72, 0x4c, 0x69, 0x73, 0x74, 0x53, 0x65, 0x74, 0x49, 0x74
, 0x65, 0x6d, 0x00, 0x00, 0x00, 0x00, 0x00, 0x00, 0x8e, 0xd0, 0xff, 0xff
, 0x00, 0x00, 0x00, 0x01, 0x14, 0x00, 0x00, 0x00, 0x1c, 0x00, 0x00, 0x00
, 0x1c, 0x00, 0x00, 0x00, 0x51, 0x00, 0x00, 0x00, 0x28, 0x00, 0x00, 0x00
, 0x02, 0x00, 0x00, 0x00, 0xff, 0xff, 0xff, 0xff, 0x08, 0x00, 0x00, 0x00
, 0x74, 0xd0, 0xff, 0xff, 0x0f, 0x00, 0x00, 0x00, 0x74, 0x66, 0x6c, 0x2e
, 0x64, 0x65, 0x71, 0x75, 0x61, 0x6e, 0x74, 0x69, 0x7a, 0x65, 0x32, 0x00
, 0x02, 0x00, 0x00, 0x00, 0x01, 0x00, 0x00, 0x00, 0x08, 0x00, 0x00, 0x00
, 0xf2, 0xd4, 0xff, 0xff, 0x00, 0x00, 0x00, 0x01, 0x18, 0x00, 0x00, 0x00
, 0x20, 0x00, 0x00, 0x00, 0x40, 0x00, 0x00, 0x00, 0x50, 0x00, 0x00, 0x00
, 0x00, 0x00, 0x00, 0x09, 0x68, 0x00, 0x00, 0x00, 0x02, 0x00, 0x00, 0x00
, 0xff, 0xff, 0xff, 0xff, 0x08, 0x00, 0x00, 0x00, 0xbc, 0xd3, 0xff, 0xff
, 0x08, 0x00, 0x00, 0x00, 0x14, 0x00, 0x00, 0x00, 0x01, 0x00, 0x00, 0x00
, 0x08, 0x00, 0x00, 0x00, 0x00, 0x00, 0x00, 0x00, 0x00, 0x00, 0x00, 0x00
, 0x01, 0x00, 0x00, 0x00, 0x15, 0x7d, 0xd2, 0x3b, 0x2f, 0x00, 0x00, 0x00
, 0x73, 0x65, 0x71, 0x75, 0x65, 0x6e, 0x74, 0x69, 0x61, 0x6c, 0x5f, 0x31
, 0x5f, 0x31, 0x2f, 0x6c, 0x73, 0x74, 0x6d, 0x5f, 0x31, 0x5f, 0x31, 0x2f
, 0x77, 0x68, 0x69, 0x6c, 0x65, 0x2f, 0x6c, 0x73, 0x74, 0x6d, 0x5f, 0x63
, 0x65, 0x6c, 0x6c, 0x5f, 0x31, 0x2f, 0x6d, 0x75, 0x6c, 0x5f, 0x32, 0x00
, 0x02, 0x00, 0x00, 0x00, 0x01, 0x00, 0x00, 0x00, 0x08, 0x00, 0x00, 0x00
, 0x82, 0xd5, 0xff, 0xff, 0x00, 0x00, 0x00, 0x01, 0x18, 0x00, 0x00, 0x00
, 0x20, 0x00, 0x00, 0x00, 0x40, 0x00, 0x00, 0x00, 0x4f, 0x00, 0x00, 0x00
, 0x00, 0x00, 0x00, 0x09, 0x6c, 0x00, 0x00, 0x00, 0x02, 0x00, 0x00, 0x00
, 0xff, 0xff, 0xff, 0xff, 0x08, 0x00, 0x00, 0x00, 0x4c, 0xd4, 0xff, 0xff
, 0x08, 0x00, 0x00, 0x00, 0x14, 0x00, 0x00, 0x00, 0x01, 0x00, 0x00, 0x00
, 0x00, 0x00, 0x00, 0x00, 0x00, 0x00, 0x00, 0x00, 0x00, 0x00, 0x00, 0x00
, 0x01, 0x00, 0x00, 0x00, 0x00, 0x00, 0x00, 0x3c, 0x30, 0x00, 0x00, 0x00
, 0x73, 0x65, 0x71, 0x75, 0x65, 0x6e, 0x74, 0x69, 0x61, 0x6c, 0x5f, 0x31
, 0x5f, 0x31, 0x2f, 0x6c, 0x73, 0x74, 0x6d, 0x5f, 0x31, 0x5f, 0x31, 0x2f
, 0x77, 0x68, 0x69, 0x6c, 0x65, 0x2f, 0x6c, 0x73, 0x74, 0x6d, 0x5f, 0x63
, 0x65, 0x6c, 0x6c, 0x5f, 0x31, 0x2f, 0x54, 0x61, 0x6e, 0x68, 0x5f, 0x31
, 0x00, 0x00, 0x00, 0x00, 0x02, 0x00, 0x00, 0x00, 0x01, 0x00, 0x00, 0x00
, 0x08, 0x00, 0x00, 0x00, 0xfe, 0xd1, 0xff, 0xff, 0x00, 0x00, 0x00, 0x01
, 0x14, 0x00, 0x00, 0x00, 0x1c, 0x00, 0x00, 0x00, 0x1c, 0x00, 0x00, 0x00
, 0x4e, 0x00, 0x00, 0x00, 0x28, 0x00, 0x00, 0x00, 0x02, 0x00, 0x00, 0x00
, 0xff, 0xff, 0xff, 0xff, 0x08, 0x00, 0x00, 0x00, 0xe4, 0xd1, 0xff, 0xff
, 0x0f, 0x00, 0x00, 0x00, 0x74, 0x66, 0x6c, 0x2e, 0x64, 0x65, 0x71, 0x75
, 0x61, 0x6e, 0x74, 0x69, 0x7a, 0x65, 0x31, 0x00, 0x02, 0x00, 0x00, 0x00
, 0x01, 0x00, 0x00, 0x00, 0x08, 0x00, 0x00, 0x00, 0x62, 0xd6, 0xff, 0xff
, 0x00, 0x00, 0x00, 0x01, 0x18, 0x00, 0x00, 0x00, 0x20, 0x00, 0x00, 0x00
, 0x40, 0x00, 0x00, 0x00, 0x4d, 0x00, 0x00, 0x00, 0x00, 0x00, 0x00, 0x09
, 0x68, 0x00, 0x00, 0x00, 0x02, 0x00, 0x00, 0x00, 0xff, 0xff, 0xff, 0xff
, 0x08, 0x00, 0x00, 0x00, 0x2c, 0xd5, 0xff, 0xff, 0x08, 0x00, 0x00, 0x00
, 0x14, 0x00, 0x00, 0x00, 0x01, 0x00, 0x00, 0x00, 0x1a, 0x00, 0x00, 0x00
, 0x00, 0x00, 0x00, 0x00, 0x00, 0x00, 0x00, 0x00, 0x01, 0x00, 0x00, 0x00
, 0x34, 0x21, 0xa5, 0x3c, 0x2f, 0x00, 0x00, 0x00, 0x73, 0x65, 0x71, 0x75
, 0x65, 0x6e, 0x74, 0x69, 0x61, 0x6c, 0x5f, 0x31, 0x5f, 0x31, 0x2f, 0x6c
, 0x73, 0x74, 0x6d, 0x5f, 0x31, 0x5f, 0x31, 0x2f, 0x77, 0x68, 0x69, 0x6c
, 0x65, 0x2f, 0x6c, 0x73, 0x74, 0x6d, 0x5f, 0x63, 0x65, 0x6c, 0x6c, 0x5f
, 0x31, 0x2f, 0x61, 0x64, 0x64, 0x5f, 0x32, 0x00, 0x02, 0x00, 0x00, 0x00
, 0x01, 0x00, 0x00, 0x00, 0x08, 0x00, 0x00, 0x00, 0xf2, 0xd6, 0xff, 0xff
, 0x00, 0x00, 0x00, 0x01, 0x18, 0x00, 0x00, 0x00, 0x20, 0x00, 0x00, 0x00
, 0x40, 0x00, 0x00, 0x00, 0x4c, 0x00, 0x00, 0x00, 0x00, 0x00, 0x00, 0x09
, 0x68, 0x00, 0x00, 0x00, 0x02, 0x00, 0x00, 0x00, 0xff, 0xff, 0xff, 0xff
, 0x08, 0x00, 0x00, 0x00, 0xbc, 0xd5, 0xff, 0xff, 0x08, 0x00, 0x00, 0x00
, 0x14, 0x00, 0x00, 0x00, 0x01, 0x00, 0x00, 0x00, 0x03, 0x00, 0x00, 0x00
, 0x00, 0x00, 0x00, 0x00, 0x00, 0x00, 0x00, 0x00, 0x01, 0x00, 0x00, 0x00
, 0xa9, 0x80, 0x8c, 0x3b, 0x2f, 0x00, 0x00, 0x00, 0x73, 0x65, 0x71, 0x75
, 0x65, 0x6e, 0x74, 0x69, 0x61, 0x6c, 0x5f, 0x31, 0x5f, 0x31, 0x2f, 0x6c
, 0x73, 0x74, 0x6d, 0x5f, 0x31, 0x5f, 0x31, 0x2f, 0x77, 0x68, 0x69, 0x6c
, 0x65, 0x2f, 0x6c, 0x73, 0x74, 0x6d, 0x5f, 0x63, 0x65, 0x6c, 0x6c, 0x5f
, 0x31, 0x2f, 0x6d, 0x75, 0x6c, 0x5f, 0x31, 0x00, 0x02, 0x00, 0x00, 0x00
, 0x01, 0x00, 0x00, 0x00, 0x08, 0x00, 0x00, 0x00, 0x82, 0xd7, 0xff, 0xff
, 0x00, 0x00, 0x00, 0x01, 0x18, 0x00, 0x00, 0x00, 0x20, 0x00, 0x00, 0x00
, 0x40, 0x00, 0x00, 0x00, 0x4b, 0x00, 0x00, 0x00, 0x00, 0x00, 0x00, 0x09
, 0x68, 0x00, 0x00, 0x00, 0x02, 0x00, 0x00, 0x00, 0xff, 0xff, 0xff, 0xff
, 0x08, 0x00, 0x00, 0x00, 0x4c, 0xd6, 0xff, 0xff, 0x08, 0x00, 0x00, 0x00
, 0x14, 0x00, 0x00, 0x00, 0x01, 0x00, 0x00, 0x00, 0x00, 0x00, 0x00, 0x00
, 0x00, 0x00, 0x00, 0x00, 0x00, 0x00, 0x00, 0x00, 0x01, 0x00, 0x00, 0x00
, 0x00, 0x00, 0x00, 0x3c, 0x2e, 0x00, 0x00, 0x00, 0x73, 0x65, 0x71, 0x75
, 0x65, 0x6e, 0x74, 0x69, 0x61, 0x6c, 0x5f, 0x31, 0x5f, 0x31, 0x2f, 0x6c
, 0x73, 0x74, 0x6d, 0x5f, 0x31, 0x5f, 0x31, 0x2f, 0x77, 0x68, 0x69, 0x6c
, 0x65, 0x2f, 0x6c, 0x73, 0x74, 0x6d, 0x5f, 0x63, 0x65, 0x6c, 0x6c, 0x5f
, 0x31, 0x2f, 0x54, 0x61, 0x6e, 0x68, 0x00, 0x00, 0x02, 0x00, 0x00, 0x00
, 0x01, 0x00, 0x00, 0x00, 0x08, 0x00, 0x00, 0x00, 0x12, 0xd8, 0xff, 0xff
, 0x00, 0x00, 0x00, 0x01, 0x18, 0x00, 0x00, 0x00, 0x20, 0x00, 0x00, 0x00
, 0x3c, 0x00, 0x00, 0x00, 0x4a, 0x00, 0x00, 0x00, 0x00, 0x00, 0x00, 0x09
, 0x68, 0x00, 0x00, 0x00, 0x02, 0x00, 0x00, 0x00, 0xff, 0xff, 0xff, 0xff
, 0x08, 0x00, 0x00, 0x00, 0xdc, 0xd6, 0xff, 0xff, 0x08, 0x00, 0x00, 0x00
, 0x10, 0x00, 0x00, 0x00, 0x01, 0x00, 0x00, 0x00, 0x80, 0xff, 0xff, 0xff
, 0xff, 0xff, 0xff, 0xff, 0x01, 0x00, 0x00, 0x00, 0x00, 0x00, 0x80, 0x3b
, 0x33, 0x00, 0x00, 0x00, 0x73, 0x65, 0x71, 0x75, 0x65, 0x6e, 0x74, 0x69
, 0x61, 0x6c, 0x5f, 0x31, 0x5f, 0x31, 0x2f, 0x6c, 0x73, 0x74, 0x6d, 0x5f
, 0x31, 0x5f, 0x31, 0x2f, 0x77, 0x68, 0x69, 0x6c, 0x65, 0x2f, 0x6c, 0x73
, 0x74, 0x6d, 0x5f, 0x63, 0x65, 0x6c, 0x6c, 0x5f, 0x31, 0x2f, 0x53, 0x69
, 0x67, 0x6d, 0x6f, 0x69, 0x64, 0x5f, 0x32, 0x00, 0x02, 0x00, 0x00, 0x00
, 0x01, 0x00, 0x00, 0x00, 0x08, 0x00, 0x00, 0x00, 0xa2, 0xd8, 0xff, 0xff
, 0x00, 0x00, 0x00, 0x01, 0x18, 0x00, 0x00, 0x00, 0x20, 0x00, 0x00, 0x00
, 0x40, 0x00, 0x00, 0x00, 0x49, 0x00, 0x00, 0x00, 0x00, 0x00, 0x00, 0x09
, 0x68, 0x00, 0x00, 0x00, 0x02, 0x00, 0x00, 0x00, 0xff, 0xff, 0xff, 0xff
, 0x08, 0x00, 0x00, 0x00, 0x6c, 0xd7, 0xff, 0xff, 0x08, 0x00, 0x00, 0x00
, 0x14, 0x00, 0x00, 0x00, 0x01, 0x00, 0x00, 0x00, 0x20, 0x00, 0x00, 0x00
, 0x00, 0x00, 0x00, 0x00, 0x00, 0x00, 0x00, 0x00, 0x01, 0x00, 0x00, 0x00
, 0xe9, 0x53, 0x84, 0x3c, 0x2d, 0x00, 0x00, 0x00, 0x73, 0x65, 0x71, 0x75
, 0x65, 0x6e, 0x74, 0x69, 0x61, 0x6c, 0x5f, 0x31, 0x5f, 0x31, 0x2f, 0x6c
, 0x73, 0x74, 0x6d, 0x5f, 0x31, 0x5f, 0x31, 0x2f, 0x77, 0x68, 0x69, 0x6c
, 0x65, 0x2f, 0x6c, 0x73, 0x74, 0x6d, 0x5f, 0x63, 0x65, 0x6c, 0x6c, 0x5f
, 0x31, 0x2f, 0x6d, 0x75, 0x6c, 0x00, 0x00, 0x00, 0x02, 0x00, 0x00, 0x00
, 0x01, 0x00, 0x00, 0x00, 0x08, 0x00, 0x00, 0x00, 0x32, 0xd9, 0xff, 0xff
, 0x00, 0x00, 0x00, 0x01, 0x18, 0x00, 0x00, 0x00, 0x20, 0x00, 0x00, 0x00
, 0x3c, 0x00, 0x00, 0x00, 0x48, 0x00, 0x00, 0x00, 0x00, 0x00, 0x00, 0x09
, 0x68, 0x00, 0x00, 0x00, 0x02, 0x00, 0x00, 0x00, 0xff, 0xff, 0xff, 0xff
, 0x08, 0x00, 0x00, 0x00, 0xfc, 0xd7, 0xff, 0xff, 0x08, 0x00, 0x00, 0x00
, 0x10, 0x00, 0x00, 0x00, 0x01, 0x00, 0x00, 0x00, 0x80, 0xff, 0xff, 0xff
, 0xff, 0xff, 0xff, 0xff, 0x01, 0x00, 0x00, 0x00, 0x00, 0x00, 0x80, 0x3b
, 0x33, 0x00, 0x00, 0x00, 0x73, 0x65, 0x71, 0x75, 0x65, 0x6e, 0x74, 0x69
, 0x61, 0x6c, 0x5f, 0x31, 0x5f, 0x31, 0x2f, 0x6c, 0x73, 0x74, 0x6d, 0x5f
, 0x31, 0x5f, 0x31, 0x2f, 0x77, 0x68, 0x69, 0x6c, 0x65, 0x2f, 0x6c, 0x73
, 0x74, 0x6d, 0x5f, 0x63, 0x65, 0x6c, 0x6c, 0x5f, 0x31, 0x2f, 0x53, 0x69
, 0x67, 0x6d, 0x6f, 0x69, 0x64, 0x5f, 0x31, 0x00, 0x02, 0x00, 0x00, 0x00
, 0x01, 0x00, 0x00, 0x00, 0x08, 0x00, 0x00, 0x00, 0xc2, 0xd9, 0xff, 0xff
, 0x00, 0x00, 0x00, 0x01, 0x18, 0x00, 0x00, 0x00, 0x20, 0x00, 0x00, 0x00
, 0x3c, 0x00, 0x00, 0x00, 0x47, 0x00, 0x00, 0x00, 0x00, 0x00, 0x00, 0x09
, 0x68, 0x00, 0x00, 0x00, 0x02, 0x00, 0x00, 0x00, 0xff, 0xff, 0xff, 0xff
, 0x08, 0x00, 0x00, 0x00, 0x8c, 0xd8, 0xff, 0xff, 0x08, 0x00, 0x00, 0x00
, 0x10, 0x00, 0x00, 0x00, 0x01, 0x00, 0x00, 0x00, 0x80, 0xff, 0xff, 0xff
, 0xff, 0xff, 0xff, 0xff, 0x01, 0x00, 0x00, 0x00, 0x00, 0x00, 0x80, 0x3b
, 0x31, 0x00, 0x00, 0x00, 0x73, 0x65, 0x71, 0x75, 0x65, 0x6e, 0x74, 0x69
, 0x61, 0x6c, 0x5f, 0x31, 0x5f, 0x31, 0x2f, 0x6c, 0x73, 0x74, 0x6d, 0x5f
, 0x31, 0x5f, 0x31, 0x2f, 0x77, 0x68, 0x69, 0x6c, 0x65, 0x2f, 0x6c, 0x73
, 0x74, 0x6d, 0x5f, 0x63, 0x65, 0x6c, 0x6c, 0x5f, 0x31, 0x2f, 0x53, 0x69
, 0x67, 0x6d, 0x6f, 0x69, 0x64, 0x00, 0x00, 0x00, 0x02, 0x00, 0x00, 0x00
, 0x01, 0x00, 0x00, 0x00, 0x08, 0x00, 0x00, 0x00, 0x52, 0xda, 0xff, 0xff
, 0x00, 0x00, 0x00, 0x01, 0x18, 0x00, 0x00, 0x00, 0x20, 0x00, 0x00, 0x00
, 0x3c, 0x00, 0x00, 0x00, 0x46, 0x00, 0x00, 0x00, 0x00, 0x00, 0x00, 0x09
, 0xf8, 0x00, 0x00, 0x00, 0x02, 0x00, 0x00, 0x00, 0xff, 0xff, 0xff, 0xff
, 0x08, 0x00, 0x00, 0x00, 0x1c, 0xd9, 0xff, 0xff, 0x08, 0x00, 0x00, 0x00
, 0x10, 0x00, 0x00, 0x00, 0x01, 0x00, 0x00, 0x00, 0xe2, 0xff, 0xff, 0xff
, 0xff, 0xff, 0xff, 0xff, 0x01, 0x00, 0x00, 0x00, 0xe2, 0x19, 0x87, 0x3c
, 0xc3, 0x00, 0x00, 0x00, 0x73, 0x65, 0x71, 0x75, 0x65, 0x6e, 0x74, 0x69
, 0x61, 0x6c, 0x5f, 0x31, 0x5f, 0x31, 0x2f, 0x6c, 0x73, 0x74, 0x6d, 0x5f
, 0x31, 0x5f, 0x31, 0x2f, 0x77, 0x68, 0x69, 0x6c, 0x65, 0x2f, 0x6c, 0x73
, 0x74, 0x6d, 0x5f, 0x63, 0x65, 0x6c, 0x6c, 0x5f, 0x31, 0x2f, 0x73, 0x70
, 0x6c, 0x69, 0x74, 0x3b, 0x73, 0x65, 0x71, 0x75, 0x65, 0x6e, 0x74, 0x69
, 0x61, 0x6c, 0x5f, 0x31, 0x5f, 0x31, 0x2f, 0x6c, 0x73, 0x74, 0x6d, 0x5f
, 0x31, 0x5f, 0x31, 0x2f, 0x77, 0x68, 0x69, 0x6c, 0x65, 0x2f, 0x6c, 0x73
, 0x74, 0x6d, 0x5f, 0x63, 0x65, 0x6c, 0x6c, 0x5f, 0x31, 0x2f, 0x73, 0x70
, 0x6c, 0x69, 0x74, 0x31, 0x3b, 0x73, 0x65, 0x71, 0x75, 0x65, 0x6e, 0x74
, 0x69, 0x61, 0x6c, 0x5f, 0x31, 0x5f, 0x31, 0x2f, 0x6c, 0x73, 0x74, 0x6d
, 0x5f, 0x31, 0x5f, 0x31, 0x2f, 0x77, 0x68, 0x69, 0x6c, 0x65, 0x2f, 0x6c
, 0x73, 0x74, 0x6d, 0x5f, 0x63, 0x65, 0x6c, 0x6c, 0x5f, 0x31, 0x2f, 0x73
, 0x70, 0x6c, 0x69, 0x74, 0x32, 0x3b, 0x73, 0x65, 0x71, 0x75, 0x65, 0x6e
, 0x74, 0x69, 0x61, 0x6c, 0x5f, 0x31, 0x5f, 0x31, 0x2f, 0x6c, 0x73, 0x74
, 0x6d, 0x5f, 0x31, 0x5f, 0x31, 0x2f, 0x77, 0x68, 0x69, 0x6c, 0x65, 0x2f
, 0x6c, 0x73, 0x74, 0x6d, 0x5f, 0x63, 0x65, 0x6c, 0x6c, 0x5f, 0x31, 0x2f
, 0x73, 0x70, 0x6c, 0x69, 0x74, 0x33, 0x33, 0x00, 0x02, 0x00, 0x00, 0x00
, 0x01, 0x00, 0x00, 0x00, 0x08, 0x00, 0x00, 0x00, 0x72, 0xdb, 0xff, 0xff
, 0x00, 0x00, 0x00, 0x01, 0x18, 0x00, 0x00, 0x00, 0x20, 0x00, 0x00, 0x00
, 0x3c, 0x00, 0x00, 0x00, 0x45, 0x00, 0x00, 0x00, 0x00, 0x00, 0x00, 0x09
, 0xf8, 0x00, 0x00, 0x00, 0x02, 0x00, 0x00, 0x00, 0xff, 0xff, 0xff, 0xff
, 0x08, 0x00, 0x00, 0x00, 0x3c, 0xda, 0xff, 0xff, 0x08, 0x00, 0x00, 0x00
, 0x10, 0x00, 0x00, 0x00, 0x01, 0x00, 0x00, 0x00, 0xe2, 0xff, 0xff, 0xff
, 0xff, 0xff, 0xff, 0xff, 0x01, 0x00, 0x00, 0x00, 0xe2, 0x19, 0x87, 0x3c
, 0xc3, 0x00, 0x00, 0x00, 0x73, 0x65, 0x71, 0x75, 0x65, 0x6e, 0x74, 0x69
, 0x61, 0x6c, 0x5f, 0x31, 0x5f, 0x31, 0x2f, 0x6c, 0x73, 0x74, 0x6d, 0x5f
, 0x31, 0x5f, 0x31, 0x2f, 0x77, 0x68, 0x69, 0x6c, 0x65, 0x2f, 0x6c, 0x73
, 0x74, 0x6d, 0x5f, 0x63, 0x65, 0x6c, 0x6c, 0x5f, 0x31, 0x2f, 0x73, 0x70
, 0x6c, 0x69, 0x74, 0x3b, 0x73, 0x65, 0x71, 0x75, 0x65, 0x6e, 0x74, 0x69
, 0x61, 0x6c, 0x5f, 0x31, 0x5f, 0x31, 0x2f, 0x6c, 0x73, 0x74, 0x6d, 0x5f
, 0x31, 0x5f, 0x31, 0x2f, 0x77, 0x68, 0x69, 0x6c, 0x65, 0x2f, 0x6c, 0x73
, 0x74, 0x6d, 0x5f, 0x63, 0x65, 0x6c, 0x6c, 0x5f, 0x31, 0x2f, 0x73, 0x70
, 0x6c, 0x69, 0x74, 0x31, 0x3b, 0x73, 0x65, 0x71, 0x75, 0x65, 0x6e, 0x74
, 0x69, 0x61, 0x6c, 0x5f, 0x31, 0x5f, 0x31, 0x2f, 0x6c, 0x73, 0x74, 0x6d
, 0x5f, 0x31, 0x5f, 0x31, 0x2f, 0x77, 0x68, 0x69, 0x6c, 0x65, 0x2f, 0x6c
, 0x73, 0x74, 0x6d, 0x5f, 0x63, 0x65, 0x6c, 0x6c, 0x5f, 0x31, 0x2f, 0x73
, 0x70, 0x6c, 0x69, 0x74, 0x32, 0x3b, 0x73, 0x65, 0x71, 0x75, 0x65, 0x6e
, 0x74, 0x69, 0x61, 0x6c, 0x5f, 0x31, 0x5f, 0x31, 0x2f, 0x6c, 0x73, 0x74
, 0x6d, 0x5f, 0x31, 0x5f, 0x31, 0x2f, 0x77, 0x68, 0x69, 0x6c, 0x65, 0x2f
, 0x6c, 0x73, 0x74, 0x6d, 0x5f, 0x63, 0x65, 0x6c, 0x6c, 0x5f, 0x31, 0x2f
, 0x73, 0x70, 0x6c, 0x69, 0x74, 0x33, 0x32, 0x00, 0x02, 0x00, 0x00, 0x00
, 0x01, 0x00, 0x00, 0x00, 0x08, 0x00, 0x00, 0x00, 0x92, 0xdc, 0xff, 0xff
, 0x00, 0x00, 0x00, 0x01, 0x18, 0x00, 0x00, 0x00, 0x20, 0x00, 0x00, 0x00
, 0x3c, 0x00, 0x00, 0x00, 0x44, 0x00, 0x00, 0x00, 0x00, 0x00, 0x00, 0x09
, 0xf8, 0x00, 0x00, 0x00, 0x02, 0x00, 0x00, 0x00, 0xff, 0xff, 0xff, 0xff
, 0x08, 0x00, 0x00, 0x00, 0x5c, 0xdb, 0xff, 0xff, 0x08, 0x00, 0x00, 0x00
, 0x10, 0x00, 0x00, 0x00, 0x01, 0x00, 0x00, 0x00, 0xe2, 0xff, 0xff, 0xff
, 0xff, 0xff, 0xff, 0xff, 0x01, 0x00, 0x00, 0x00, 0xe2, 0x19, 0x87, 0x3c
, 0xc3, 0x00, 0x00, 0x00, 0x73, 0x65, 0x71, 0x75, 0x65, 0x6e, 0x74, 0x69
, 0x61, 0x6c, 0x5f, 0x31, 0x5f, 0x31, 0x2f, 0x6c, 0x73, 0x74, 0x6d, 0x5f
, 0x31, 0x5f, 0x31, 0x2f, 0x77, 0x68, 0x69, 0x6c, 0x65, 0x2f, 0x6c, 0x73
, 0x74, 0x6d, 0x5f, 0x63, 0x65, 0x6c, 0x6c, 0x5f, 0x31, 0x2f, 0x73, 0x70
, 0x6c, 0x69, 0x74, 0x3b, 0x73, 0x65, 0x71, 0x75, 0x65, 0x6e, 0x74, 0x69
, 0x61, 0x6c, 0x5f, 0x31, 0x5f, 0x31, 0x2f, 0x6c, 0x73, 0x74, 0x6d, 0x5f
, 0x31, 0x5f, 0x31, 0x2f, 0x77, 0x68, 0x69, 0x6c, 0x65, 0x2f, 0x6c, 0x73
, 0x74, 0x6d, 0x5f, 0x63, 0x65, 0x6c, 0x6c, 0x5f, 0x31, 0x2f, 0x73, 0x70
, 0x6c, 0x69, 0x74, 0x31, 0x3b, 0x73, 0x65, 0x71, 0x75, 0x65, 0x6e, 0x74
, 0x69, 0x61, 0x6c, 0x5f, 0x31, 0x5f, 0x31, 0x2f, 0x6c, 0x73, 0x74, 0x6d
, 0x5f, 0x31, 0x5f, 0x31, 0x2f, 0x77, 0x68, 0x69, 0x6c, 0x65, 0x2f, 0x6c
, 0x73, 0x74, 0x6d, 0x5f, 0x63, 0x65, 0x6c, 0x6c, 0x5f, 0x31, 0x2f, 0x73
, 0x70, 0x6c, 0x69, 0x74, 0x32, 0x3b, 0x73, 0x65, 0x71, 0x75, 0x65, 0x6e
, 0x74, 0x69, 0x61, 0x6c, 0x5f, 0x31, 0x5f, 0x31, 0x2f, 0x6c, 0x73, 0x74
, 0x6d, 0x5f, 0x31, 0x5f, 0x31, 0x2f, 0x77, 0x68, 0x69, 0x6c, 0x65, 0x2f
, 0x6c, 0x73, 0x74, 0x6d, 0x5f, 0x63, 0x65, 0x6c, 0x6c, 0x5f, 0x31, 0x2f
, 0x73, 0x70, 0x6c, 0x69, 0x74, 0x33, 0x31, 0x00, 0x02, 0x00, 0x00, 0x00
, 0x01, 0x00, 0x00, 0x00, 0x08, 0x00, 0x00, 0x00, 0xb2, 0xdd, 0xff, 0xff
, 0x00, 0x00, 0x00, 0x01, 0x18, 0x00, 0x00, 0x00, 0x20, 0x00, 0x00, 0x00
, 0x3c, 0x00, 0x00, 0x00, 0x43, 0x00, 0x00, 0x00, 0x00, 0x00, 0x00, 0x09
, 0xf8, 0x00, 0x00, 0x00, 0x02, 0x00, 0x00, 0x00, 0xff, 0xff, 0xff, 0xff
, 0x08, 0x00, 0x00, 0x00, 0x7c, 0xdc, 0xff, 0xff, 0x08, 0x00, 0x00, 0x00
, 0x10, 0x00, 0x00, 0x00, 0x01, 0x00, 0x00, 0x00, 0xe2, 0xff, 0xff, 0xff
, 0xff, 0xff, 0xff, 0xff, 0x01, 0x00, 0x00, 0x00, 0xe2, 0x19, 0x87, 0x3c
, 0xc2, 0x00, 0x00, 0x00, 0x73, 0x65, 0x71, 0x75, 0x65, 0x6e, 0x74, 0x69
, 0x61, 0x6c, 0x5f, 0x31, 0x5f, 0x31, 0x2f, 0x6c, 0x73, 0x74, 0x6d, 0x5f
, 0x31, 0x5f, 0x31, 0x2f, 0x77, 0x68, 0x69, 0x6c, 0x65, 0x2f, 0x6c, 0x73
, 0x74, 0x6d, 0x5f, 0x63, 0x65, 0x6c, 0x6c, 0x5f, 0x31, 0x2f, 0x73, 0x70
, 0x6c, 0x69, 0x74, 0x3b, 0x73, 0x65, 0x71, 0x75, 0x65, 0x6e, 0x74, 0x69
, 0x61, 0x6c, 0x5f, 0x31, 0x5f, 0x31, 0x2f, 0x6c, 0x73, 0x74, 0x6d, 0x5f
, 0x31, 0x5f, 0x31, 0x2f, 0x77, 0x68, 0x69, 0x6c, 0x65, 0x2f, 0x6c, 0x73
, 0x74, 0x6d, 0x5f, 0x63, 0x65, 0x6c, 0x6c, 0x5f, 0x31, 0x2f, 0x73, 0x70
, 0x6c, 0x69, 0x74, 0x31, 0x3b, 0x73, 0x65, 0x71, 0x75, 0x65, 0x6e, 0x74
, 0x69, 0x61, 0x6c, 0x5f, 0x31, 0x5f, 0x31, 0x2f, 0x6c, 0x73, 0x74, 0x6d
, 0x5f, 0x31, 0x5f, 0x31, 0x2f, 0x77, 0x68, 0x69, 0x6c, 0x65, 0x2f, 0x6c
, 0x73, 0x74, 0x6d, 0x5f, 0x63, 0x65, 0x6c, 0x6c, 0x5f, 0x31, 0x2f, 0x73
, 0x70, 0x6c, 0x69, 0x74, 0x32, 0x3b, 0x73, 0x65, 0x71, 0x75, 0x65, 0x6e
, 0x74, 0x69, 0x61, 0x6c, 0x5f, 0x31, 0x5f, 0x31, 0x2f, 0x6c, 0x73, 0x74
, 0x6d, 0x5f, 0x31, 0x5f, 0x31, 0x2f, 0x77, 0x68, 0x69, 0x6c, 0x65, 0x2f
, 0x6c, 0x73, 0x74, 0x6d, 0x5f, 0x63, 0x65, 0x6c, 0x6c, 0x5f, 0x31, 0x2f
, 0x73, 0x70, 0x6c, 0x69, 0x74, 0x33, 0x00, 0x00, 0x02, 0x00, 0x00, 0x00
, 0x01, 0x00, 0x00, 0x00, 0x08, 0x00, 0x00, 0x00, 0xd2, 0xde, 0xff, 0xff
, 0x00, 0x00, 0x00, 0x01, 0x18, 0x00, 0x00, 0x00, 0x20, 0x00, 0x00, 0x00
, 0x40, 0x00, 0x00, 0x00, 0x42, 0x00, 0x00, 0x00, 0x00, 0x00, 0x00, 0x09
, 0x68, 0x00, 0x00, 0x00, 0x02, 0x00, 0x00, 0x00, 0xff, 0xff, 0xff, 0xff
, 0x20, 0x00, 0x00, 0x00, 0x9c, 0xdd, 0xff, 0xff, 0x08, 0x00, 0x00, 0x00
, 0x14, 0x00, 0x00, 0x00, 0x01, 0x00, 0x00, 0x00, 0xe2, 0xff, 0xff, 0xff
, 0xff, 0xff, 0xff, 0xff, 0x00, 0x00, 0x00, 0x00, 0x01, 0x00, 0x00, 0x00
, 0xe2, 0x19, 0x87, 0x3c, 0x2f, 0x00, 0x00, 0x00, 0x73, 0x65, 0x71, 0x75
, 0x65, 0x6e, 0x74, 0x69, 0x61, 0x6c, 0x5f, 0x31, 0x5f, 0x31, 0x2f, 0x6c
, 0x73, 0x74, 0x6d, 0x5f, 0x31, 0x5f, 0x31, 0x2f, 0x77, 0x68, 0x69, 0x6c
, 0x65, 0x2f, 0x6c, 0x73, 0x74, 0x6d, 0x5f, 0x63, 0x65, 0x6c, 0x6c, 0x5f
, 0x31, 0x2f, 0x61, 0x64, 0x64, 0x5f, 0x31, 0x00, 0x02, 0x00, 0x00, 0x00
, 0x01, 0x00, 0x00, 0x00, 0x20, 0x00, 0x00, 0x00, 0x62, 0xdf, 0xff, 0xff
, 0x00, 0x00, 0x00, 0x01, 0x18, 0x00, 0x00, 0x00, 0x20, 0x00, 0x00, 0x00
, 0x40, 0x00, 0x00, 0x00, 0x41, 0x00, 0x00, 0x00, 0x00, 0x00, 0x00, 0x09
, 0x68, 0x00, 0x00, 0x00, 0x02, 0x00, 0x00, 0x00, 0xff, 0xff, 0xff, 0xff
, 0x20, 0x00, 0x00, 0x00, 0x2c, 0xde, 0xff, 0xff, 0x08, 0x00, 0x00, 0x00
, 0x14, 0x00, 0x00, 0x00, 0x01, 0x00, 0x00, 0x00, 0xe4, 0xff, 0xff, 0xff
, 0xff, 0xff, 0xff, 0xff, 0x00, 0x00, 0x00, 0x00, 0x01, 0x00, 0x00, 0x00
, 0xfc, 0x18, 0x89, 0x3c, 0x2d, 0x00, 0x00, 0x00, 0x73, 0x65, 0x71, 0x75
, 0x65, 0x6e, 0x74, 0x69, 0x61, 0x6c, 0x5f, 0x31, 0x5f, 0x31, 0x2f, 0x6c
, 0x73, 0x74, 0x6d, 0x5f, 0x31, 0x5f, 0x31, 0x2f, 0x77, 0x68, 0x69, 0x6c
, 0x65, 0x2f, 0x6c, 0x73, 0x74, 0x6d, 0x5f, 0x63, 0x65, 0x6c, 0x6c, 0x5f
, 0x31, 0x2f, 0x61, 0x64, 0x64, 0x00, 0x00, 0x00, 0x02, 0x00, 0x00, 0x00
, 0x01, 0x00, 0x00, 0x00, 0x20, 0x00, 0x00, 0x00, 0xf2, 0xdf, 0xff, 0xff
, 0x00, 0x00, 0x00, 0x01, 0x18, 0x00, 0x00, 0x00, 0x20, 0x00, 0x00, 0x00
, 0x3c, 0x00, 0x00, 0x00, 0x40, 0x00, 0x00, 0x00, 0x00, 0x00, 0x00, 0x09
, 0x68, 0x00, 0x00, 0x00, 0x02, 0x00, 0x00, 0x00, 0xff, 0xff, 0xff, 0xff
, 0x20, 0x00, 0x00, 0x00, 0xbc, 0xde, 0xff, 0xff, 0x08, 0x00, 0x00, 0x00
, 0x10, 0x00, 0x00, 0x00, 0x01, 0x00, 0x00, 0x00, 0xf6, 0xff, 0xff, 0xff
, 0xff, 0xff, 0xff, 0xff, 0x01, 0x00, 0x00, 0x00, 0xb0, 0xa2, 0x69, 0x3c
, 0x30, 0x00, 0x00, 0x00, 0x73, 0x65, 0x71, 0x75, 0x65, 0x6e, 0x74, 0x69
, 0x61, 0x6c, 0x5f, 0x31, 0x5f, 0x31, 0x2f, 0x6c, 0x73, 0x74, 0x6d, 0x5f
, 0x31, 0x5f, 0x31, 0x2f, 0x77, 0x68, 0x69, 0x6c, 0x65, 0x2f, 0x6c, 0x73
, 0x74, 0x6d, 0x5f, 0x63, 0x65, 0x6c, 0x6c, 0x5f, 0x31, 0x2f, 0x4d, 0x61
, 0x74, 0x4d, 0x75, 0x6c, 0x00, 0x00, 0x00, 0x00, 0x02, 0x00, 0x00, 0x00
, 0x01, 0x00, 0x00, 0x00, 0x20, 0x00, 0x00, 0x00, 0x82, 0xe0, 0xff, 0xff
, 0x00, 0x00, 0x00, 0x01, 0x18, 0x00, 0x00, 0x00, 0x20, 0x00, 0x00, 0x00
, 0x40, 0x00, 0x00, 0x00, 0x3f, 0x00, 0x00, 0x00, 0x00, 0x00, 0x00, 0x09
, 0x7c, 0x00, 0x00, 0x00, 0x02, 0x00, 0x00, 0x00, 0xff, 0xff, 0xff, 0xff
, 0x02, 0x00, 0x00, 0x00, 0x4c, 0xdf, 0xff, 0xff, 0x08, 0x00, 0x00, 0x00
, 0x14, 0x00, 0x00, 0x00, 0x01, 0x00, 0x00, 0x00, 0x80, 0xff, 0xff, 0xff
, 0xff, 0xff, 0xff, 0xff, 0x00, 0x00, 0x00, 0x00, 0x01, 0x00, 0x00, 0x00
, 0x81, 0x80, 0x80, 0x3b, 0x42, 0x00, 0x00, 0x00, 0x73, 0x65, 0x71, 0x75
, 0x65, 0x6e, 0x74, 0x69, 0x61, 0x6c, 0x5f, 0x31, 0x5f, 0x31, 0x2f, 0x6c
, 0x73, 0x74, 0x6d, 0x5f, 0x31, 0x5f, 0x31, 0x2f, 0x77, 0x68, 0x69, 0x6c
, 0x65, 0x2f, 0x54, 0x65, 0x6e, 0x73, 0x6f, 0x72, 0x41, 0x72, 0x72, 0x61
, 0x79, 0x56, 0x32, 0x52, 0x65, 0x61, 0x64, 0x2f, 0x54, 0x65, 0x6e, 0x73
, 0x6f, 0x72, 0x4c, 0x69, 0x73, 0x74, 0x47, 0x65, 0x74, 0x49, 0x74, 0x65
, 0x6d, 0x3b, 0x00, 0x00, 0x02, 0x00, 0x00, 0x00, 0x01, 0x00, 0x00, 0x00
, 0x02, 0x00, 0x00, 0x00, 0x62, 0xdd, 0xff, 0xff, 0x00, 0x00, 0x00, 0x01
, 0x14, 0x00, 0x00, 0x00, 0x14, 0x00, 0x00, 0x00, 0x3e, 0x00, 0x00, 0x00
, 0x00, 0x00, 0x00, 0x02, 0x30, 0x00, 0x00, 0x00, 0xe8, 0xdc, 0xff, 0xff
, 0x23, 0x00, 0x00, 0x00, 0x73, 0x65, 0x71, 0x75, 0x65, 0x6e, 0x74, 0x69
, 0x61, 0x6c, 0x5f, 0x31, 0x5f, 0x31, 0x2f, 0x6c, 0x73, 0x74, 0x6d, 0x5f
, 0x31, 0x5f, 0x31, 0x2f, 0x77, 0x68, 0x69, 0x6c, 0x65, 0x2f, 0x61, 0x64
, 0x64, 0x5f, 0x31, 0x00, 0x00, 0x00, 0x00, 0x00, 0x72, 0xe1, 0xff, 0xff
, 0x00, 0x00, 0x00, 0x01, 0x18, 0x00, 0x00, 0x00, 0x20, 0x00, 0x00, 0x00
, 0x3c, 0x00, 0x00, 0x00, 0x3d, 0x00, 0x00, 0x00, 0x00, 0x00, 0x00, 0x09
, 0x68, 0x00, 0x00, 0x00, 0x02, 0x00, 0x00, 0x00, 0xff, 0xff, 0xff, 0xff
, 0x20, 0x00, 0x00, 0x00, 0x3c, 0xe0, 0xff, 0xff, 0x08, 0x00, 0x00, 0x00
, 0x10, 0x00, 0x00, 0x00, 0x01, 0x00, 0x00, 0x00, 0xf8, 0xff, 0xff, 0xff
, 0xff, 0xff, 0xff, 0xff, 0x01, 0x00, 0x00, 0x00, 0x1f, 0xc1, 0x4e, 0x3c
, 0x32, 0x00, 0x00, 0x00, 0x73, 0x65, 0x71, 0x75, 0x65, 0x6e, 0x74, 0x69
, 0x61, 0x6c, 0x5f, 0x31, 0x5f, 0x31, 0x2f, 0x6c, 0x73, 0x74, 0x6d, 0x5f
, 0x31, 0x5f, 0x31, 0x2f, 0x77, 0x68, 0x69, 0x6c, 0x65, 0x2f, 0x6c, 0x73
, 0x74, 0x6d, 0x5f, 0x63, 0x65, 0x6c, 0x6c, 0x5f, 0x31, 0x2f, 0x4d, 0x61
, 0x74, 0x4d, 0x75, 0x6c, 0x5f, 0x31, 0x00, 0x00, 0x02, 0x00, 0x00, 0x00
, 0x01, 0x00, 0x00, 0x00, 0x20, 0x00, 0x00, 0x00, 0x3e, 0xde, 0xff, 0xff
, 0x00, 0x00, 0x00, 0x01, 0x14, 0x00, 0x00, 0x00, 0x14, 0x00, 0x00, 0x00
, 0x3c, 0x00, 0x00, 0x00, 0x00, 0x00, 0x00, 0x02, 0x30, 0x00, 0x00, 0x00
, 0xc4, 0xdd, 0xff, 0xff, 0x21, 0x00, 0x00, 0x00, 0x73, 0x65, 0x71, 0x75
, 0x65, 0x6e, 0x74, 0x69, 0x61, 0x6c, 0x5f, 0x31, 0x5f, 0x31, 0x2f, 0x6c
, 0x73, 0x74, 0x6d, 0x5f, 0x31, 0x5f, 0x31, 0x2f, 0x77, 0x68, 0x69, 0x6c
, 0x65, 0x2f, 0x61, 0x64, 0x64, 0x00, 0x00, 0x00, 0x00, 0x00, 0x00, 0x00
, 0x4e, 0xe2, 0xff, 0xff, 0x00, 0x00, 0x00, 0x01, 0x18, 0x00, 0x00, 0x00
, 0x24, 0x00, 0x00, 0x00, 0x40, 0x00, 0x00, 0x00, 0x3b, 0x00, 0x00, 0x00
, 0x00, 0x00, 0x00, 0x09, 0x48, 0x00, 0x00, 0x00, 0x03, 0x00, 0x00, 0x00
, 0x1e, 0x00, 0x00, 0x00, 0xff, 0xff, 0xff, 0xff, 0x02, 0x00, 0x00, 0x00
, 0x1c, 0xe1, 0xff, 0xff, 0x08, 0x00, 0x00, 0x00, 0x10, 0x00, 0x00, 0x00
, 0x01, 0x00, 0x00, 0x00, 0x80, 0xff, 0xff, 0xff, 0xff, 0xff, 0xff, 0xff
, 0x01, 0x00, 0x00, 0x00, 0x81, 0x80, 0x80, 0x3b, 0x0d, 0x00, 0x00, 0x00
, 0x74, 0x66, 0x6c, 0x2e, 0x71, 0x75, 0x61, 0x6e, 0x74, 0x69, 0x7a, 0x65
, 0x34, 0x00, 0x00, 0x00, 0x03, 0x00, 0x00, 0x00, 0x1e, 0x00, 0x00, 0x00
, 0x01, 0x00, 0x00, 0x00, 0x02, 0x00, 0x00, 0x00, 0xc2, 0xe2, 0xff, 0xff
, 0x00, 0x00, 0x00, 0x01, 0x18, 0x00, 0x00, 0x00, 0x20, 0x00, 0x00, 0x00
, 0x40, 0x00, 0x00, 0x00, 0x3a, 0x00, 0x00, 0x00, 0x00, 0x00, 0x00, 0x09
, 0x48, 0x00, 0x00, 0x00, 0x02, 0x00, 0x00, 0x00, 0xff, 0xff, 0xff, 0xff
, 0x08, 0x00, 0x00, 0x00, 0x8c, 0xe1, 0xff, 0xff, 0x08, 0x00, 0x00, 0x00
, 0x14, 0x00, 0x00, 0x00, 0x01, 0x00, 0x00, 0x00, 0x1a, 0x00, 0x00, 0x00
, 0x00, 0x00, 0x00, 0x00, 0x00, 0x00, 0x00, 0x00, 0x01, 0x00, 0x00, 0x00
, 0xf6, 0x6c, 0xa4, 0x3c, 0x0d, 0x00, 0x00, 0x00, 0x74, 0x66, 0x6c, 0x2e
, 0x71, 0x75, 0x61, 0x6e, 0x74, 0x69, 0x7a, 0x65, 0x33, 0x00, 0x00, 0x00
, 0x02, 0x00, 0x00, 0x00, 0x01, 0x00, 0x00, 0x00, 0x08, 0x00, 0x00, 0x00
, 0x32, 0xe3, 0xff, 0xff, 0x00, 0x00, 0x00, 0x01, 0x18, 0x00, 0x00, 0x00
, 0x20, 0x00, 0x00, 0x00, 0x40, 0x00, 0x00, 0x00, 0x39, 0x00, 0x00, 0x00
, 0x00, 0x00, 0x00, 0x09, 0x48, 0x00, 0x00, 0x00, 0x02, 0x00, 0x00, 0x00
, 0xff, 0xff, 0xff, 0xff, 0x08, 0x00, 0x00, 0x00, 0xfc, 0xe1, 0xff, 0xff
, 0x08, 0x00, 0x00, 0x00, 0x14, 0x00, 0x00, 0x00, 0x01, 0x00, 0x00, 0x00
, 0x07, 0x00, 0x00, 0x00, 0x00, 0x00, 0x00, 0x00, 0x00, 0x00, 0x00, 0x00
, 0x01, 0x00, 0x00, 0x00, 0x0b, 0xe7, 0xd1, 0x3b, 0x0d, 0x00, 0x00, 0x00
, 0x74, 0x66, 0x6c, 0x2e, 0x71, 0x75, 0x61, 0x6e, 0x74, 0x69, 0x7a, 0x65
, 0x32, 0x00, 0x00, 0x00, 0x02, 0x00, 0x00, 0x00, 0x01, 0x00, 0x00, 0x00
, 0x08, 0x00, 0x00, 0x00, 0xde, 0xdf, 0xff, 0xff, 0x00, 0x00, 0x00, 0x01
, 0x14, 0x00, 0x00, 0x00, 0xa8, 0x01, 0x00, 0x00, 0x38, 0x00, 0x00, 0x00
, 0x00, 0x00, 0x00, 0x09, 0xb4, 0x01, 0x00, 0x00, 0x5c, 0xe2, 0xff, 0xff
, 0x08, 0x00, 0x00, 0x00, 0x0c, 0x01, 0x00, 0x00, 0x20, 0x00, 0x00, 0x00
, 0x00, 0x00, 0x00, 0x00, 0x00, 0x00, 0x00, 0x00, 0x00, 0x00, 0x00, 0x00
, 0x00, 0x00, 0x00, 0x00, 0x00, 0x00, 0x00, 0x00, 0x00, 0x00, 0x00, 0x00
, 0x00, 0x00, 0x00, 0x00, 0x00, 0x00, 0x00, 0x00, 0x00, 0x00, 0x00, 0x00
, 0x00, 0x00, 0x00, 0x00, 0x00, 0x00, 0x00, 0x00, 0x00, 0x00, 0x00, 0x00
, 0x00, 0x00, 0x00, 0x00, 0x00, 0x00, 0x00, 0x00, 0x00, 0x00, 0x00, 0x00
, 0x00, 0x00, 0x00, 0x00, 0x00, 0x00, 0x00, 0x00, 0x00, 0x00, 0x00, 0x00
, 0x00, 0x00, 0x00, 0x00, 0x00, 0x00, 0x00, 0x00, 0x00, 0x00, 0x00, 0x00
, 0x00, 0x00, 0x00, 0x00, 0x00, 0x00, 0x00, 0x00, 0x00, 0x00, 0x00, 0x00
, 0x00, 0x00, 0x00, 0x00, 0x00, 0x00, 0x00, 0x00, 0x00, 0x00, 0x00, 0x00
, 0x00, 0x00, 0x00, 0x00, 0x00, 0x00, 0x00, 0x00, 0x00, 0x00, 0x00, 0x00
, 0x00, 0x00, 0x00, 0x00, 0x00, 0x00, 0x00, 0x00, 0x00, 0x00, 0x00, 0x00
, 0x00, 0x00, 0x00, 0x00, 0x00, 0x00, 0x00, 0x00, 0x00, 0x00, 0x00, 0x00
, 0x00, 0x00, 0x00, 0x00, 0x00, 0x00, 0x00, 0x00, 0x00, 0x00, 0x00, 0x00
, 0x00, 0x00, 0x00, 0x00, 0x00, 0x00, 0x00, 0x00, 0x00, 0x00, 0x00, 0x00
, 0x00, 0x00, 0x00, 0x00, 0x00, 0x00, 0x00, 0x00, 0x00, 0x00, 0x00, 0x00
, 0x00, 0x00, 0x00, 0x00, 0x00, 0x00, 0x00, 0x00, 0x00, 0x00, 0x00, 0x00
, 0x00, 0x00, 0x00, 0x00, 0x00, 0x00, 0x00, 0x00, 0x00, 0x00, 0x00, 0x00
, 0x00, 0x00, 0x00, 0x00, 0x00, 0x00, 0x00, 0x00, 0x00, 0x00, 0x00, 0x00
, 0x00, 0x00, 0x00, 0x00, 0x00, 0x00, 0x00, 0x00, 0x00, 0x00, 0x00, 0x00
, 0x00, 0x00, 0x00, 0x00, 0x00, 0x00, 0x00, 0x00, 0x00, 0x00, 0x00, 0x00
, 0x00, 0x00, 0x00, 0x00, 0x00, 0x00, 0x00, 0x00, 0x00, 0x00, 0x00, 0x00
, 0x00, 0x00, 0x00, 0x00, 0x00, 0x00, 0x00, 0x00, 0x20, 0x00, 0x00, 0x00
, 0x2e, 0xd5, 0x2c, 0x3b, 0x0f, 0x7f, 0x46, 0x3b, 0x0f, 0xcd, 0xc2, 0x3a
, 0x6a, 0xe0, 0xf1, 0x3a, 0x81, 0x6d, 0x1c, 0x3b, 0x28, 0x1e, 0x12, 0x3b
, 0xd0, 0xb8, 0x40, 0x3b, 0x70, 0x90, 0x46, 0x3b, 0x27, 0x9f, 0x51, 0x3b
, 0xfa, 0x2f, 0xfd, 0x3a, 0xab, 0x06, 0xbe, 0x3a, 0xc5, 0x3a, 0x05, 0x3b
, 0x75, 0x2c, 0x3c, 0x3b, 0x42, 0x1b, 0x09, 0x3b, 0x74, 0x14, 0x17, 0x3b
, 0xe7, 0xfb, 0x42, 0x3b, 0x8e, 0x15, 0x82, 0x3b, 0x8b, 0x74, 0x8b, 0x3b
, 0x16, 0x13, 0x86, 0x3b, 0xe3, 0x38, 0xa6, 0x3b, 0x58, 0x74, 0xa6, 0x3b
, 0xab, 0x40, 0x85, 0x3b, 0x89, 0x80, 0x7b, 0x3b, 0x2c, 0xfc, 0x4b, 0x3b
, 0xa8, 0x9d, 0x8f, 0x3b, 0x39, 0x8c, 0x99, 0x3b, 0x46, 0xbc, 0x41, 0x3b
, 0x73, 0x2c, 0x3a, 0x3b, 0x71, 0x2e, 0x59, 0x3b, 0x58, 0xa9, 0x77, 0x3b
, 0x30, 0xbd, 0x41, 0x3b, 0xdc, 0x38, 0x4d, 0x3b, 0x12, 0x00, 0x00, 0x00
, 0x74, 0x66, 0x6c, 0x2e, 0x70, 0x73, 0x65, 0x75, 0x64, 0x6f, 0x5f, 0x71
, 0x63, 0x6f, 0x6e, 0x73, 0x74, 0x35, 0x00, 0x00, 0x02, 0x00, 0x00, 0x00
, 0x20, 0x00, 0x00, 0x00, 0x08, 0x00, 0x00, 0x00, 0xb6, 0xe1, 0xff, 0xff
, 0x00, 0x00, 0x00, 0x01, 0x14, 0x00, 0x00, 0x00, 0xa8, 0x01, 0x00, 0x00
, 0x37, 0x00, 0x00, 0x00, 0x00, 0x00, 0x00, 0x09, 0xb4, 0x01, 0x00, 0x00
, 0x34, 0xe4, 0xff, 0xff, 0x08, 0x00, 0x00, 0x00, 0x0c, 0x01, 0x00, 0x00
, 0x20, 0x00, 0x00, 0x00, 0x00, 0x00, 0x00, 0x00, 0x00, 0x00, 0x00, 0x00
, 0x00, 0x00, 0x00, 0x00, 0x00, 0x00, 0x00, 0x00, 0x00, 0x00, 0x00, 0x00
, 0x00, 0x00, 0x00, 0x00, 0x00, 0x00, 0x00, 0x00, 0x00, 0x00, 0x00, 0x00
, 0x00, 0x00, 0x00, 0x00, 0x00, 0x00, 0x00, 0x00, 0x00, 0x00, 0x00, 0x00
, 0x00, 0x00, 0x00, 0x00, 0x00, 0x00, 0x00, 0x00, 0x00, 0x00, 0x00, 0x00
, 0x00, 0x00, 0x00, 0x00, 0x00, 0x00, 0x00, 0x00, 0x00, 0x00, 0x00, 0x00
, 0x00, 0x00, 0x00, 0x00, 0x00, 0x00, 0x00, 0x00, 0x00, 0x00, 0x00, 0x00
, 0x00, 0x00, 0x00, 0x00, 0x00, 0x00, 0x00, 0x00, 0x00, 0x00, 0x00, 0x00
, 0x00, 0x00, 0x00, 0x00, 0x00, 0x00, 0x00, 0x00, 0x00, 0x00, 0x00, 0x00
, 0x00, 0x00, 0x00, 0x00, 0x00, 0x00, 0x00, 0x00, 0x00, 0x00, 0x00, 0x00
, 0x00, 0x00, 0x00, 0x00, 0x00, 0x00, 0x00, 0x00, 0x00, 0x00, 0x00, 0x00
, 0x00, 0x00, 0x00, 0x00, 0x00, 0x00, 0x00, 0x00, 0x00, 0x00, 0x00, 0x00
, 0x00, 0x00, 0x00, 0x00, 0x00, 0x00, 0x00, 0x00, 0x00, 0x00, 0x00, 0x00
, 0x00, 0x00, 0x00, 0x00, 0x00, 0x00, 0x00, 0x00, 0x00, 0x00, 0x00, 0x00
, 0x00, 0x00, 0x00, 0x00, 0x00, 0x00, 0x00, 0x00, 0x00, 0x00, 0x00, 0x00
, 0x00, 0x00, 0x00, 0x00, 0x00, 0x00, 0x00, 0x00, 0x00, 0x00, 0x00, 0x00
, 0x00, 0x00, 0x00, 0x00, 0x00, 0x00, 0x00, 0x00, 0x00, 0x00, 0x00, 0x00
, 0x00, 0x00, 0x00, 0x00, 0x00, 0x00, 0x00, 0x00, 0x00, 0x00, 0x00, 0x00
, 0x00, 0x00, 0x00, 0x00, 0x00, 0x00, 0x00, 0x00, 0x00, 0x00, 0x00, 0x00
, 0x00, 0x00, 0x00, 0x00, 0x00, 0x00, 0x00, 0x00, 0x00, 0x00, 0x00, 0x00
, 0x00, 0x00, 0x00, 0x00, 0x00, 0x00, 0x00, 0x00, 0x00, 0x00, 0x00, 0x00
, 0x00, 0x00, 0x00, 0x00, 0x00, 0x00, 0x00, 0x00, 0x00, 0x00, 0x00, 0x00
, 0x20, 0x00, 0x00, 0x00, 0x66, 0x53, 0x5a, 0x3b, 0xde, 0x6a, 0x74, 0x3b
, 0xe5, 0xc6, 0x80, 0x3b, 0x41, 0x7f, 0x37, 0x3b, 0xdf, 0x40, 0x6a, 0x3a
, 0xb8, 0x23, 0x18, 0x3b, 0xc5, 0x20, 0x8f, 0x3b, 0xc2, 0x7d, 0x1c, 0x3b
, 0x73, 0x4b, 0x6c, 0x3b, 0x87, 0xb5, 0x38, 0x3b, 0x85, 0xfa, 0x08, 0x3b
, 0xe6, 0x38, 0x12, 0x3b, 0xd8, 0xf4, 0xc6, 0x3b, 0x0b, 0x27, 0x42, 0x3b
, 0xb2, 0xf6, 0xc3, 0x3a, 0x5d, 0x14, 0x45, 0x3b, 0x4f, 0x64, 0x94, 0x3b
, 0xc5, 0x87, 0x72, 0x3a, 0x68, 0xd6, 0xd6, 0x3a, 0x81, 0x3c, 0x1d, 0x3b
, 0xfa, 0xfe, 0x1f, 0x3b, 0x9a, 0x72, 0x84, 0x3b, 0x5e, 0x0e, 0x75, 0x3b
, 0x65, 0x1d, 0x6c, 0x3b, 0xb0, 0x48, 0x6f, 0x3b, 0x00, 0x47, 0x58, 0x3b
, 0xd3, 0x84, 0x52, 0x3b, 0xd9, 0xfc, 0x22, 0x3b, 0x1c, 0xa7, 0x68, 0x3b
, 0xb6, 0xaf, 0xd1, 0x3b, 0x6a, 0x22, 0x0c, 0x3c, 0x05, 0x26, 0x8b, 0x3b
, 0x12, 0x00, 0x00, 0x00, 0x74, 0x66, 0x6c, 0x2e, 0x70, 0x73, 0x65, 0x75
, 0x64, 0x6f, 0x5f, 0x71, 0x63, 0x6f, 0x6e, 0x73, 0x74, 0x34, 0x00, 0x00
, 0x02, 0x00, 0x00, 0x00, 0x20, 0x00, 0x00, 0x00, 0x02, 0x00, 0x00, 0x00
, 0x8e, 0xe3, 0xff, 0xff, 0x00, 0x00, 0x00, 0x01, 0x14, 0x00, 0x00, 0x00
, 0x34, 0x00, 0x00, 0x00, 0x36, 0x00, 0x00, 0x00, 0x00, 0x00, 0x00, 0x09
, 0x40, 0x00, 0x00, 0x00, 0x0c, 0xe6, 0xff, 0xff, 0x08, 0x00, 0x00, 0x00
, 0x14, 0x00, 0x00, 0x00, 0x01, 0x00, 0x00, 0x00, 0x8e, 0xff, 0xff, 0xff
, 0xff, 0xff, 0xff, 0xff, 0x00, 0x00, 0x00, 0x00, 0x01, 0x00, 0x00, 0x00
, 0xaf, 0xe3, 0x9f, 0x3b, 0x12, 0x00, 0x00, 0x00, 0x74, 0x66, 0x6c, 0x2e
, 0x70, 0x73, 0x65, 0x75, 0x64, 0x6f, 0x5f, 0x71, 0x63, 0x6f, 0x6e, 0x73
, 0x74, 0x33, 0x00, 0x00, 0x01, 0x00, 0x00, 0x00, 0x20, 0x00, 0x00, 0x00
, 0xee, 0xe3, 0xff, 0xff, 0x00, 0x00, 0x00, 0x01, 0x14, 0x00, 0x00, 0x00
, 0x14, 0x00, 0x00, 0x00, 0x04, 0x00, 0x00, 0x00, 0x00, 0x00, 0x00, 0x02
, 0x20, 0x00, 0x00, 0x00, 0x74, 0xe3, 0xff, 0xff, 0x10, 0x00, 0x00, 0x00
, 0x61, 0x72, 0x69, 0x74, 0x68, 0x2e, 0x63, 0x6f, 0x6e, 0x73, 0x74, 0x61
, 0x6e, 0x74, 0x31, 0x31, 0x00, 0x00, 0x00, 0x00, 0x00, 0x00, 0x00, 0x00
, 0x2a, 0xe4, 0xff, 0xff, 0x00, 0x00, 0x00, 0x01, 0x14, 0x00, 0x00, 0x00
, 0x14, 0x00, 0x00, 0x00, 0x03, 0x00, 0x00, 0x00, 0x00, 0x00, 0x00, 0x02
, 0x20, 0x00, 0x00, 0x00, 0xb0, 0xe3, 0xff, 0xff, 0x10, 0x00, 0x00, 0x00
, 0x61, 0x72, 0x69, 0x74, 0x68, 0x2e, 0x63, 0x6f, 0x6e, 0x73, 0x74, 0x61
, 0x6e, 0x74, 0x31, 0x30, 0x00, 0x00, 0x00, 0x00, 0x00, 0x00, 0x00, 0x00
, 0x12, 0xe4, 0xff, 0xff, 0x00, 0x00, 0x00, 0x01, 0x14, 0x00, 0x00, 0x00
, 0x20, 0x00, 0x00, 0x00, 0x20, 0x00, 0x00, 0x00, 0x33, 0x00, 0x00, 0x00
, 0x44, 0x00, 0x00, 0x00, 0x03, 0x00, 0x00, 0x00, 0x1e, 0x00, 0x00, 0x00
, 0xff, 0xff, 0xff, 0xff, 0x02, 0x00, 0x00, 0x00, 0xfc, 0xe3, 0xff, 0xff
, 0x27, 0x00, 0x00, 0x00, 0x73, 0x65, 0x71, 0x75, 0x65, 0x6e, 0x74, 0x69
, 0x61, 0x6c, 0x5f, 0x31, 0x5f, 0x31, 0x2f, 0x6c, 0x73, 0x74, 0x6d, 0x5f
, 0x31, 0x5f, 0x31, 0x2f, 0x77, 0x68, 0x69, 0x6c, 0x65, 0x5f, 0x62, 0x6f
, 0x64, 0x79, 0x5f, 0x61, 0x72, 0x67, 0x35, 0x00, 0x03, 0x00, 0x00, 0x00
, 0x1e, 0x00, 0x00, 0x00, 0x01, 0x00, 0x00, 0x00, 0x02, 0x00, 0x00, 0x00
, 0x7e, 0xe4, 0xff, 0xff, 0x00, 0x00, 0x00, 0x01, 0x14, 0x00, 0x00, 0x00
, 0x1c, 0x00, 0x00, 0x00, 0x1c, 0x00, 0x00, 0x00, 0x32, 0x00, 0x00, 0x00
, 0x40, 0x00, 0x00, 0x00, 0x02, 0x00, 0x00, 0x00, 0xff, 0xff, 0xff, 0xff
, 0x08, 0x00, 0x00, 0x00, 0x64, 0xe4, 0xff, 0xff, 0x27, 0x00, 0x00, 0x00
, 0x73, 0x65, 0x71, 0x75, 0x65, 0x6e, 0x74, 0x69, 0x61, 0x6c, 0x5f, 0x31
, 0x5f, 0x31, 0x2f, 0x6c, 0x73, 0x74, 0x6d, 0x5f, 0x31, 0x5f, 0x31, 0x2f
, 0x77, 0x68, 0x69, 0x6c, 0x65, 0x5f, 0x62, 0x6f, 0x64, 0x79, 0x5f, 0x61
, 0x72, 0x67, 0x34, 0x00, 0x02, 0x00, 0x00, 0x00, 0x01, 0x00, 0x00, 0x00
, 0x08, 0x00, 0x00, 0x00, 0xe2, 0xe4, 0xff, 0xff, 0x00, 0x00, 0x00, 0x01
, 0x14, 0x00, 0x00, 0x00, 0x1c, 0x00, 0x00, 0x00, 0x1c, 0x00, 0x00, 0x00
, 0x31, 0x00, 0x00, 0x00, 0x40, 0x00, 0x00, 0x00, 0x02, 0x00, 0x00, 0x00
, 0xff, 0xff, 0xff, 0xff, 0x08, 0x00, 0x00, 0x00, 0xc8, 0xe4, 0xff, 0xff
, 0x27, 0x00, 0x00, 0x00, 0x73, 0x65, 0x71, 0x75, 0x65, 0x6e, 0x74, 0x69
, 0x61, 0x6c, 0x5f, 0x31, 0x5f, 0x31, 0x2f, 0x6c, 0x73, 0x74, 0x6d, 0x5f
, 0x31, 0x5f, 0x31, 0x2f, 0x77, 0x68, 0x69, 0x6c, 0x65, 0x5f, 0x62, 0x6f
, 0x64, 0x79, 0x5f, 0x61, 0x72, 0x67, 0x33, 0x00, 0x02, 0x00, 0x00, 0x00
, 0x01, 0x00, 0x00, 0x00, 0x08, 0x00, 0x00, 0x00, 0x44, 0xea, 0xff, 0xff
, 0x1c, 0x00, 0x00, 0x00, 0x00, 0x00, 0x00, 0x01, 0x34, 0x00, 0x00, 0x00
, 0x34, 0x00, 0x00, 0x00, 0x30, 0x00, 0x00, 0x00, 0x00, 0x00, 0x00, 0x0e
, 0x54, 0x00, 0x00, 0x00, 0x01, 0x00, 0x00, 0x00, 0x04, 0x00, 0x00, 0x00
, 0x2a, 0xea, 0xff, 0xff, 0x00, 0x00, 0x00, 0x01, 0x04, 0x00, 0x00, 0x00
, 0x02, 0x00, 0x00, 0x00, 0x00, 0x00, 0x00, 0x00, 0x08, 0x00, 0x00, 0x00
, 0x44, 0xe5, 0xff, 0xff, 0x27, 0x00, 0x00, 0x00, 0x73, 0x65, 0x71, 0x75
, 0x65, 0x6e, 0x74, 0x69, 0x61, 0x6c, 0x5f, 0x31, 0x5f, 0x31, 0x2f, 0x6c
, 0x73, 0x74, 0x6d, 0x5f, 0x31, 0x5f, 0x31, 0x2f, 0x77, 0x68, 0x69, 0x6c
, 0x65, 0x5f, 0x62, 0x6f, 0x64, 0x79, 0x5f, 0x61, 0x72, 0x67, 0x32, 0x00
, 0x00, 0x00, 0x00, 0x00, 0x0e, 0xe6, 0xff, 0xff, 0x00, 0x00, 0x00, 0x01
, 0x14, 0x00, 0x00, 0x00, 0x14, 0x00, 0x00, 0x00, 0x2f, 0x00, 0x00, 0x00
, 0x00, 0x00, 0x00, 0x02, 0x34, 0x00, 0x00, 0x00, 0x94, 0xe5, 0xff, 0xff
, 0x27, 0x00, 0x00, 0x00, 0x73, 0x65, 0x71, 0x75, 0x65, 0x6e, 0x74, 0x69
, 0x61, 0x6c, 0x5f, 0x31, 0x5f, 0x31, 0x2f, 0x6c, 0x73, 0x74, 0x6d, 0x5f
, 0x31, 0x5f, 0x31, 0x2f, 0x77, 0x68, 0x69, 0x6c, 0x65, 0x5f, 0x62, 0x6f
, 0x64, 0x79, 0x5f, 0x61, 0x72, 0x67, 0x31, 0x00, 0x00, 0x00, 0x00, 0x00
, 0x5e, 0xe6, 0xff, 0xff, 0x00, 0x00, 0x00, 0x01, 0x14, 0x00, 0x00, 0x00
, 0x14, 0x00, 0x00, 0x00, 0x2e, 0x00, 0x00, 0x00, 0x00, 0x00, 0x00, 0x02
, 0x34, 0x00, 0x00, 0x00, 0xe4, 0xe5, 0xff, 0xff, 0x27, 0x00, 0x00, 0x00
, 0x73, 0x65, 0x71, 0x75, 0x65, 0x6e, 0x74, 0x69, 0x61, 0x6c, 0x5f, 0x31
, 0x5f, 0x31, 0x2f, 0x6c, 0x73, 0x74, 0x6d, 0x5f, 0x31, 0x5f, 0x31, 0x2f
, 0x77, 0x68, 0x69, 0x6c, 0x65, 0x5f, 0x62, 0x6f, 0x64, 0x79, 0x5f, 0x61
, 0x72, 0x67, 0x30, 0x00, 0x00, 0x00, 0x00, 0x00, 0x7e, 0xfb, 0xff, 0xff
, 0x14, 0x00, 0x00, 0x00, 0x38, 0x00, 0x00, 0x00, 0xb0, 0x00, 0x00, 0x00
, 0xb4, 0x00, 0x00, 0x00, 0xcc, 0x00, 0x00, 0x00, 0x22, 0x00, 0x00, 0x00
, 0x73, 0x65, 0x71, 0x75, 0x65, 0x6e, 0x74, 0x69, 0x61, 0x6c, 0x5f, 0x31
, 0x5f, 0x31, 0x2f, 0x6c, 0x73, 0x74, 0x6d, 0x5f, 0x31, 0x5f, 0x31, 0x2f
, 0x77, 0x68, 0x69, 0x6c, 0x65, 0x5f, 0x63, 0x6f, 0x6e, 0x64, 0x00, 0x00
, 0x03, 0x00, 0x00, 0x00, 0x54, 0x00, 0x00, 0x00, 0x2c, 0x00, 0x00, 0x00
, 0x04, 0x00, 0x00, 0x00, 0xe6, 0xf8, 0xff, 0xff, 0x0c, 0x00, 0x00, 0x00
, 0x10, 0x00, 0x00, 0x00, 0x0d, 0x00, 0x00, 0x00, 0x01, 0x00, 0x00, 0x00
, 0x09, 0x00, 0x00, 0x00, 0x02, 0x00, 0x00, 0x00, 0x08, 0x00, 0x00, 0x00
, 0x07, 0x00, 0x00, 0x00, 0x0a, 0xf9, 0xff, 0xff, 0x0c, 0x00, 0x00, 0x00
, 0x10, 0x00, 0x00, 0x00, 0x0c, 0x00, 0x00, 0x00, 0x01, 0x00, 0x00, 0x00
, 0x08, 0x00, 0x00, 0x00, 0x02, 0x00, 0x00, 0x00, 0x00, 0x00, 0x00, 0x00
, 0x06, 0x00, 0x00, 0x00, 0x2e, 0xf9, 0xff, 0xff, 0x0c, 0x00, 0x00, 0x00
, 0x10, 0x00, 0x00, 0x00, 0x0c, 0x00, 0x00, 0x00, 0x01, 0x00, 0x00, 0x00
, 0x07, 0x00, 0x00, 0x00, 0x02, 0x00, 0x00, 0x00, 0x01, 0x00, 0x00, 0x00
, 0x06, 0x00, 0x00, 0x00, 0x01, 0x00, 0x00, 0x00, 0x09, 0x00, 0x00, 0x00
, 0x06, 0x00, 0x00, 0x00, 0x00, 0x00, 0x00, 0x00, 0x01, 0x00, 0x00, 0x00
, 0x02, 0x00, 0x00, 0x00, 0x03, 0x00, 0x00, 0x00, 0x04, 0x00, 0x00, 0x00
, 0x05, 0x00, 0x00, 0x00, 0x0a, 0x00, 0x00, 0x00, 0x4c, 0x03, 0x00, 0x00
, 0xf8, 0x02, 0x00, 0x00, 0x80, 0x02, 0x00, 0x00, 0x18, 0x02, 0x00, 0x00
, 0xb0, 0x01, 0x00, 0x00, 0x40, 0x01, 0x00, 0x00, 0x00, 0x01, 0x00, 0x00
, 0xb0, 0x00, 0x00, 0x00, 0x5c, 0x00, 0x00, 0x00, 0x04, 0x00, 0x00, 0x00
, 0xba, 0xe7, 0xff, 0xff, 0x00, 0x00, 0x00, 0x01, 0x14, 0x00, 0x00, 0x00
, 0x14, 0x00, 0x00, 0x00, 0x2d, 0x00, 0x00, 0x00, 0x00, 0x00, 0x00, 0x06
, 0x38, 0x00, 0x00, 0x00, 0x40, 0xe7, 0xff, 0xff, 0x28, 0x00, 0x00, 0x00
, 0x73, 0x65, 0x71, 0x75, 0x65, 0x6e, 0x74, 0x69, 0x61, 0x6c, 0x5f, 0x31
, 0x5f, 0x31, 0x2f, 0x6c, 0x73, 0x74, 0x6d, 0x5f, 0x31, 0x5f, 0x31, 0x2f
, 0x77, 0x68, 0x69, 0x6c, 0x65, 0x2f, 0x4c, 0x6f, 0x67, 0x69, 0x63, 0x61
, 0x6c, 0x41, 0x6e, 0x64, 0x00, 0x00, 0x00, 0x00, 0x00, 0x00, 0x00, 0x00
, 0x0e, 0xe8, 0xff, 0xff, 0x00, 0x00, 0x00, 0x01, 0x14, 0x00, 0x00, 0x00
, 0x14, 0x00, 0x00, 0x00, 0x2c, 0x00, 0x00, 0x00, 0x00, 0x00, 0x00, 0x06
, 0x34, 0x00, 0x00, 0x00, 0x94, 0xe7, 0xff, 0xff, 0x24, 0x00, 0x00, 0x00
, 0x73, 0x65, 0x71, 0x75, 0x65, 0x6e, 0x74, 0x69, 0x61, 0x6c, 0x5f, 0x31
, 0x5f, 0x31, 0x2f, 0x6c, 0x73, 0x74, 0x6d, 0x5f, 0x31, 0x5f, 0x31, 0x2f
, 0x77, 0x68, 0x69, 0x6c, 0x65, 0x2f, 0x4c, 0x65, 0x73, 0x73, 0x5f, 0x31
, 0x00, 0x00, 0x00, 0x00, 0x00, 0x00, 0x00, 0x00, 0x5e, 0xe8, 0xff, 0xff
, 0x00, 0x00, 0x00, 0x01, 0x14, 0x00, 0x00, 0x00, 0x14, 0x00, 0x00, 0x00
, 0x2b, 0x00, 0x00, 0x00, 0x00, 0x00, 0x00, 0x06, 0x30, 0x00, 0x00, 0x00
, 0xe4, 0xe7, 0xff, 0xff, 0x22, 0x00, 0x00, 0x00, 0x73, 0x65, 0x71, 0x75
, 0x65, 0x6e, 0x74, 0x69, 0x61, 0x6c, 0x5f, 0x31, 0x5f, 0x31, 0x2f, 0x6c
, 0x73, 0x74, 0x6d, 0x5f, 0x31, 0x5f, 0x31, 0x2f, 0x77, 0x68, 0x69, 0x6c
, 0x65, 0x2f, 0x4c, 0x65, 0x73, 0x73, 0x00, 0x00, 0x00, 0x00, 0x00, 0x00
, 0xaa, 0xe8, 0xff, 0xff, 0x00, 0x00, 0x00, 0x01, 0x14, 0x00, 0x00, 0x00
, 0x14, 0x00, 0x00, 0x00, 0x2a, 0x00, 0x00, 0x00, 0x00, 0x00, 0x00, 0x02
, 0x20, 0x00, 0x00, 0x00, 0x30, 0xe8, 0xff, 0xff, 0x10, 0x00, 0x00, 0x00
, 0x61, 0x72, 0x69, 0x74, 0x68, 0x2e, 0x63, 0x6f, 0x6e, 0x73, 0x74, 0x61
, 0x6e, 0x74, 0x31, 0x34, 0x00, 0x00, 0x00, 0x00, 0x00, 0x00, 0x00, 0x00
, 0x92, 0xe8, 0xff, 0xff, 0x00, 0x00, 0x00, 0x01, 0x14, 0x00, 0x00, 0x00
, 0x20, 0x00, 0x00, 0x00, 0x20, 0x00, 0x00, 0x00, 0x29, 0x00, 0x00, 0x00
, 0x44, 0x00, 0x00, 0x00, 0x03, 0x00, 0x00, 0x00, 0x1e, 0x00, 0x00, 0x00
, 0xff, 0xff, 0xff, 0xff, 0x02, 0x00, 0x00, 0x00, 0x7c, 0xe8, 0xff, 0xff
, 0x27, 0x00, 0x00, 0x00, 0x73, 0x65, 0x71, 0x75, 0x65, 0x6e, 0x74, 0x69
, 0x61, 0x6c, 0x5f, 0x31, 0x5f, 0x31, 0x2f, 0x6c, 0x73, 0x74, 0x6d, 0x5f
, 0x31, 0x5f, 0x31, 0x2f, 0x77, 0x68, 0x69, 0x6c, 0x65, 0x5f, 0x63, 0x6f
, 0x6e, 0x64, 0x5f, 0x61, 0x72, 0x67, 0x35, 0x00, 0x03, 0x00, 0x00, 0x00
, 0x1e, 0x00, 0x00, 0x00, 0x01, 0x00, 0x00, 0x00, 0x02, 0x00, 0x00, 0x00
, 0xfe, 0xe8, 0xff, 0xff, 0x00, 0x00, 0x00, 0x01, 0x14, 0x00, 0x00, 0x00
, 0x1c, 0x00, 0x00, 0x00, 0x1c, 0x00, 0x00, 0x00, 0x28, 0x00, 0x00, 0x00
, 0x40, 0x00, 0x00, 0x00, 0x02, 0x00, 0x00, 0x00, 0xff, 0xff, 0xff, 0xff
, 0x08, 0x00, 0x00, 0x00, 0xe4, 0xe8, 0xff, 0xff, 0x27, 0x00, 0x00, 0x00
, 0x73, 0x65, 0x71, 0x75, 0x65, 0x6e, 0x74, 0x69, 0x61, 0x6c, 0x5f, 0x31
, 0x5f, 0x31, 0x2f, 0x6c, 0x73, 0x74, 0x6d, 0x5f, 0x31, 0x5f, 0x31, 0x2f
, 0x77, 0x68, 0x69, 0x6c, 0x65, 0x5f, 0x63, 0x6f, 0x6e, 0x64, 0x5f, 0x61
, 0x72, 0x67, 0x34, 0x00, 0x02, 0x00, 0x00, 0x00, 0x01, 0x00, 0x00, 0x00
, 0x08, 0x00, 0x00, 0x00, 0x62, 0xe9, 0xff, 0xff, 0x00, 0x00, 0x00, 0x01
, 0x14, 0x00, 0x00, 0x00, 0x1c, 0x00, 0x00, 0x00, 0x1c, 0x00, 0x00, 0x00
, 0x27, 0x00, 0x00, 0x00, 0x40, 0x00, 0x00, 0x00, 0x02, 0x00, 0x00, 0x00
, 0xff, 0xff, 0xff, 0xff, 0x08, 0x00, 0x00, 0x00, 0x48, 0xe9, 0xff, 0xff
, 0x27, 0x00, 0x00, 0x00, 0x73, 0x65, 0x71, 0x75, 0x65, 0x6e, 0x74, 0x69
, 0x61, 0x6c, 0x5f, 0x31, 0x5f, 0x31, 0x2f, 0x6c, 0x73, 0x74, 0x6d, 0x5f
, 0x31, 0x5f, 0x31, 0x2f, 0x77, 0x68, 0x69, 0x6c, 0x65, 0x5f, 0x63, 0x6f
, 0x6e, 0x64, 0x5f, 0x61, 0x72, 0x67, 0x33, 0x00, 0x02, 0x00, 0x00, 0x00
, 0x01, 0x00, 0x00, 0x00, 0x08, 0x00, 0x00, 0x00, 0xc4, 0xee, 0xff, 0xff
, 0x1c, 0x00, 0x00, 0x00, 0x00, 0x00, 0x00, 0x01, 0x34, 0x00, 0x00, 0x00
, 0x34, 0x00, 0x00, 0x00, 0x26, 0x00, 0x00, 0x00, 0x00, 0x00, 0x00, 0x0e
, 0x54, 0x00, 0x00, 0x00, 0x01, 0x00, 0x00, 0x00, 0x04, 0x00, 0x00, 0x00
, 0xaa, 0xee, 0xff, 0xff, 0x00, 0x00, 0x00, 0x01, 0x04, 0x00, 0x00, 0x00
, 0x02, 0x00, 0x00, 0x00, 0x00, 0x00, 0x00, 0x00, 0x08, 0x00, 0x00, 0x00
, 0xc4, 0xe9, 0xff, 0xff, 0x27, 0x00, 0x00, 0x00, 0x73, 0x65, 0x71, 0x75
, 0x65, 0x6e, 0x74, 0x69, 0x61, 0x6c, 0x5f, 0x31, 0x5f, 0x31, 0x2f, 0x6c
, 0x73, 0x74, 0x6d, 0x5f, 0x31, 0x5f, 0x31, 0x2f, 0x77, 0x68, 0x69, 0x6c
, 0x65, 0x5f, 0x63, 0x6f, 0x6e, 0x64, 0x5f, 0x61, 0x72, 0x67, 0x32, 0x00
, 0x00, 0x00, 0x00, 0x00, 0x8e, 0xea, 0xff, 0xff, 0x00, 0x00, 0x00, 0x01
, 0x14, 0x00, 0x00, 0x00, 0x14, 0x00, 0x00, 0x00, 0x25, 0x00, 0x00, 0x00
, 0x00, 0x00, 0x00, 0x02, 0x34, 0x00, 0x00, 0x00, 0x14, 0xea, 0xff, 0xff
, 0x27, 0x00, 0x00, 0x00, 0x73, 0x65, 0x71, 0x75, 0x65, 0x6e, 0x74, 0x69
, 0x61, 0x6c, 0x5f, 0x31, 0x5f, 0x31, 0x2f, 0x6c, 0x73, 0x74, 0x6d, 0x5f
, 0x31, 0x5f, 0x31, 0x2f, 0x77, 0x68, 0x69, 0x6c, 0x65, 0x5f, 0x63, 0x6f
, 0x6e, 0x64, 0x5f, 0x61, 0x72, 0x67, 0x31, 0x00, 0x00, 0x00, 0x00, 0x00
, 0xde, 0xea, 0xff, 0xff, 0x00, 0x00, 0x00, 0x01, 0x14, 0x00, 0x00, 0x00
, 0x14, 0x00, 0x00, 0x00, 0x24, 0x00, 0x00, 0x00, 0x00, 0x00, 0x00, 0x02
, 0x34, 0x00, 0x00, 0x00, 0x64, 0xea, 0xff, 0xff, 0x27, 0x00, 0x00, 0x00
, 0x73, 0x65, 0x71, 0x75, 0x65, 0x6e, 0x74, 0x69, 0x61, 0x6c, 0x5f, 0x31
, 0x5f, 0x31, 0x2f, 0x6c, 0x73, 0x74, 0x6d, 0x5f, 0x31, 0x5f, 0x31, 0x2f
, 0x77, 0x68, 0x69, 0x6c, 0x65, 0x5f, 0x63, 0x6f, 0x6e, 0x64, 0x5f, 0x61
, 0x72, 0x67, 0x30, 0x00, 0x00, 0x00, 0x00, 0x00, 0x00, 0x00, 0x0e, 0x00
, 0x18, 0x00, 0x14, 0x00, 0x10, 0x00, 0x0c, 0x00, 0x08, 0x00, 0x04, 0x00
, 0x0e, 0x00, 0x00, 0x00, 0x14, 0x00, 0x00, 0x00, 0x1c, 0x00, 0x00, 0x00
, 0x54, 0x04, 0x00, 0x00, 0x58, 0x04, 0x00, 0x00, 0x5c, 0x04, 0x00, 0x00
, 0x04, 0x00, 0x00, 0x00, 0x6d, 0x61, 0x69, 0x6e, 0x00, 0x00, 0x00, 0x00
, 0x10, 0x00, 0x00, 0x00, 0x1c, 0x04, 0x00, 0x00, 0xd4, 0x03, 0x00, 0x00
, 0x34, 0x03, 0x00, 0x00, 0xd4, 0x02, 0x00, 0x00, 0xac, 0x02, 0x00, 0x00
, 0x7c, 0x02, 0x00, 0x00, 0x3c, 0x02, 0x00, 0x00, 0x14, 0x02, 0x00, 0x00
, 0xf0, 0x01, 0x00, 0x00, 0x88, 0x01, 0x00, 0x00, 0xfc, 0x00, 0x00, 0x00
, 0xdc, 0x00, 0x00, 0x00, 0x84, 0x00, 0x00, 0x00, 0x4c, 0x00, 0x00, 0x00
, 0x28, 0x00, 0x00, 0x00, 0x04, 0x00, 0x00, 0x00, 0x8e, 0xfd, 0xff, 0xff
, 0x0c, 0x00, 0x00, 0x00, 0x10, 0x00, 0x00, 0x00, 0x05, 0x00, 0x00, 0x00
, 0x01, 0x00, 0x00, 0x00, 0x22, 0x00, 0x00, 0x00, 0x01, 0x00, 0x00, 0x00
, 0x21, 0x00, 0x00, 0x00, 0xae, 0xfd, 0xff, 0xff, 0x0c, 0x00, 0x00, 0x00
, 0x10, 0x00, 0x00, 0x00, 0x0b, 0x00, 0x00, 0x00, 0x01, 0x00, 0x00, 0x00
, 0x21, 0x00, 0x00, 0x00, 0x01, 0x00, 0x00, 0x00, 0x20, 0x00, 0x00, 0x00
, 0xb6, 0xfc, 0xff, 0xff, 0x14, 0x00, 0x00, 0x00, 0x00, 0x00, 0x00, 0x08
, 0x10, 0x00, 0x00, 0x00, 0x14, 0x00, 0x00, 0x00, 0x0a, 0x00, 0x00, 0x00
, 0x68, 0xeb, 0xff, 0xff, 0x01, 0x00, 0x00, 0x00, 0x20, 0x00, 0x00, 0x00
, 0x03, 0x00, 0x00, 0x00, 0x1f, 0x00, 0x00, 0x00, 0x0c, 0x00, 0x00, 0x00
, 0x0b, 0x00, 0x00, 0x00, 0xea, 0xfc, 0xff, 0xff, 0x24, 0x00, 0x00, 0x00
, 0x00, 0x00, 0x00, 0x20, 0x2c, 0x00, 0x00, 0x00, 0x30, 0x00, 0x00, 0x00
, 0x03, 0x00, 0x00, 0x00, 0x00, 0x00, 0x0e, 0x00, 0x10, 0x00, 0x0c, 0x00
, 0x08, 0x00, 0x00, 0x00, 0x00, 0x00, 0x04, 0x00, 0x0e, 0x00, 0x00, 0x00
, 0x01, 0x00, 0x00, 0x00, 0x06, 0x00, 0x00, 0x00, 0x06, 0x00, 0x00, 0x00
, 0x01, 0x00, 0x00, 0x00, 0x1f, 0x00, 0x00, 0x00, 0x04, 0x00, 0x00, 0x00
, 0x1e, 0x00, 0x00, 0x00, 0x08, 0x00, 0x00, 0x00, 0x09, 0x00, 0x00, 0x00
, 0x0a, 0x00, 0x00, 0x00, 0xf6, 0xfc, 0xff, 0xff, 0x08, 0x00, 0x00, 0x00
, 0x0c, 0x00, 0x00, 0x00, 0x01, 0x00, 0x00, 0x00, 0x1e, 0x00, 0x00, 0x00
, 0x01, 0x00, 0x00, 0x00, 0x1d, 0x00, 0x00, 0x00, 0xf8, 0xfd, 0xff, 0xff
, 0x10, 0x00, 0x00, 0x00, 0x6c, 0x00, 0x00, 0x00, 0x70, 0x00, 0x00, 0x00
, 0x09, 0x00, 0x00, 0x00, 0x5b, 0x00, 0x00, 0x00, 0x0f, 0x54, 0x65, 0x6e
, 0x73, 0x6f, 0x72, 0x4c, 0x69, 0x73, 0x74, 0x53, 0x74, 0x61, 0x63, 0x6b
, 0x00, 0x40, 0x12, 0x0f, 0x54, 0x65, 0x6e, 0x73, 0x6f, 0x72, 0x4c, 0x69
, 0x73, 0x74, 0x53, 0x74, 0x61, 0x63, 0x6b, 0x1a, 0x00, 0x1a, 0x00, 0x2a
, 0x13, 0x0a, 0x0d, 0x65, 0x6c, 0x65, 0x6d, 0x65, 0x6e, 0x74, 0x5f, 0x64
, 0x74, 0x79, 0x70, 0x65, 0x12, 0x02, 0x30, 0x01, 0x2a, 0x12, 0x0a, 0x0c
, 0x6e, 0x75, 0x6d, 0x5f, 0x65, 0x6c, 0x65, 0x6d, 0x65, 0x6e, 0x74, 0x73
, 0x12, 0x02, 0x18, 0x01, 0x32, 0x00, 0x00, 0x02, 0x53, 0x43, 0x14, 0x14
, 0x04, 0x28, 0x01, 0x00, 0x01, 0x00, 0x00, 0x00, 0x1d, 0x00, 0x00, 0x00
, 0x02, 0x00, 0x00, 0x00, 0x19, 0x00, 0x00, 0x00, 0x01, 0x00, 0x00, 0x00
, 0xe2, 0xfd, 0xff, 0xff, 0x1c, 0x00, 0x00, 0x00, 0x00, 0x00, 0x00, 0x5d
, 0x20, 0x00, 0x00, 0x00, 0x38, 0x00, 0x00, 0x00, 0x08, 0x00, 0x00, 0x00
, 0x08, 0x00, 0x0c, 0x00, 0x08, 0x00, 0x04, 0x00, 0x08, 0x00, 0x00, 0x00
, 0x02, 0x00, 0x00, 0x00, 0x01, 0x00, 0x00, 0x00, 0x06, 0x00, 0x00, 0x00
, 0x17, 0x00, 0x00, 0x00, 0x18, 0x00, 0x00, 0x00, 0x19, 0x00, 0x00, 0x00
, 0x1a, 0x00, 0x00, 0x00, 0x1b, 0x00, 0x00, 0x00, 0x1c, 0x00, 0x00, 0x00
, 0x06, 0x00, 0x00, 0x00, 0x07, 0x00, 0x00, 0x00, 0x07, 0x00, 0x00, 0x00
, 0x10, 0x00, 0x00, 0x00, 0x16, 0x00, 0x00, 0x00, 0x16, 0x00, 0x00, 0x00
, 0x13, 0x00, 0x00, 0x00, 0x5e, 0xff, 0xff, 0xff, 0x0c, 0x00, 0x00, 0x00
, 0x10, 0x00, 0x00, 0x00, 0x05, 0x00, 0x00, 0x00, 0x01, 0x00, 0x00, 0x00
, 0x16, 0x00, 0x00, 0x00, 0x01, 0x00, 0x00, 0x00, 0x15, 0x00, 0x00, 0x00
, 0x7e, 0xff, 0xff, 0xff, 0x0c, 0x00, 0x00, 0x00, 0x10, 0x00, 0x00, 0x00
, 0x07, 0x00, 0x00, 0x00, 0x01, 0x00, 0x00, 0x00, 0x15, 0x00, 0x00, 0x00
, 0x02, 0x00, 0x00, 0x00, 0x14, 0x00, 0x00, 0x00, 0x0d, 0x00, 0x00, 0x00
, 0x8a, 0xfe, 0xff, 0xff, 0x1c, 0x00, 0x00, 0x00, 0x00, 0x00, 0x00, 0x3b
, 0x1c, 0x00, 0x00, 0x00, 0x20, 0x00, 0x00, 0x00, 0x06, 0x00, 0x00, 0x00
, 0x00, 0x00, 0x06, 0x00, 0x08, 0x00, 0x04, 0x00, 0x06, 0x00, 0x00, 0x00
, 0x02, 0x00, 0x00, 0x00, 0x01, 0x00, 0x00, 0x00, 0x14, 0x00, 0x00, 0x00
, 0x02, 0x00, 0x00, 0x00, 0x11, 0x00, 0x00, 0x00, 0x06, 0x00, 0x00, 0x00
, 0xde, 0xff, 0xff, 0xff, 0x0c, 0x00, 0x00, 0x00, 0x10, 0x00, 0x00, 0x00
, 0x05, 0x00, 0x00, 0x00, 0x01, 0x00, 0x00, 0x00, 0x13, 0x00, 0x00, 0x00
, 0x01, 0x00, 0x00, 0x00, 0x12, 0x00, 0x00, 0x00, 0x00, 0x00, 0x0a, 0x00
, 0x10, 0x00, 0x0c, 0x00, 0x08, 0x00, 0x04, 0x00, 0x0a, 0x00, 0x00, 0x00
, 0x0c, 0x00, 0x00, 0x00, 0x10, 0x00, 0x00, 0x00, 0x04, 0x00, 0x00, 0x00
, 0x01, 0x00, 0x00, 0x00, 0x12, 0x00, 0x00, 0x00, 0x02, 0x00, 0x00, 0x00
, 0x0e, 0x00, 0x00, 0x00, 0x05, 0x00, 0x00, 0x00, 0x16, 0xff, 0xff, 0xff
, 0x24, 0x00, 0x00, 0x00, 0x00, 0x00, 0x00, 0x20, 0x24, 0x00, 0x00, 0x00
, 0x28, 0x00, 0x00, 0x00, 0x03, 0x00, 0x00, 0x00, 0x00, 0x00, 0x0e, 0x00
, 0x08, 0x00, 0x00, 0x00, 0x00, 0x00, 0x00, 0x00, 0x00, 0x00, 0x04, 0x00
, 0x0e, 0x00, 0x00, 0x00, 0x01, 0x00, 0x00, 0x00, 0x01, 0x00, 0x00, 0x00
, 0x11, 0x00, 0x00, 0x00, 0x04, 0x00, 0x00, 0x00, 0x0f, 0x00, 0x00, 0x00
, 0x03, 0x00, 0x00, 0x00, 0x04, 0x00, 0x00, 0x00, 0x04, 0x00, 0x00, 0x00
, 0x10, 0x00, 0x14, 0x00, 0x10, 0x00, 0x0c, 0x00, 0x08, 0x00, 0x00, 0x00
, 0x00, 0x00, 0x04, 0x00, 0x10, 0x00, 0x00, 0x00, 0x10, 0x00, 0x00, 0x00
, 0x70, 0x00, 0x00, 0x00, 0x74, 0x00, 0x00, 0x00, 0x02, 0x00, 0x00, 0x00
, 0x5d, 0x00, 0x00, 0x00, 0x11, 0x54, 0x65, 0x6e, 0x73, 0x6f, 0x72, 0x4c
, 0x69, 0x73, 0x74, 0x52, 0x65, 0x73, 0x65, 0x72, 0x76, 0x65, 0x00, 0x40
, 0x12, 0x11, 0x54, 0x65, 0x6e, 0x73, 0x6f, 0x72, 0x4c, 0x69, 0x73, 0x74
, 0x52, 0x65, 0x73, 0x65, 0x72, 0x76, 0x65, 0x1a, 0x00, 0x1a, 0x00, 0x2a
, 0x10, 0x0a, 0x0a, 0x73, 0x68, 0x61, 0x70, 0x65, 0x5f, 0x74, 0x79, 0x70
, 0x65, 0x12, 0x02, 0x30, 0x03, 0x2a, 0x13, 0x0a, 0x0d, 0x65, 0x6c, 0x65
, 0x6d, 0x65, 0x6e, 0x74, 0x5f, 0x64, 0x74, 0x79, 0x70, 0x65, 0x12, 0x02
, 0x30, 0x01, 0x32, 0x00, 0x00, 0x02, 0x55, 0x43, 0x14, 0x14, 0x04, 0x28
, 0x01, 0x00, 0x00, 0x00, 0x01, 0x00, 0x00, 0x00, 0x10, 0x00, 0x00, 0x00
, 0x02, 0x00, 0x00, 0x00, 0x01, 0x00, 0x00, 0x00, 0x02, 0x00, 0x00, 0x00
, 0x00, 0x00, 0x0e, 0x00, 0x1a, 0x00, 0x14, 0x00, 0x10, 0x00, 0x0c, 0x00
, 0x0b, 0x00, 0x04, 0x00, 0x0e, 0x00, 0x00, 0x00, 0x1c, 0x00, 0x00, 0x00
, 0x00, 0x00, 0x00, 0x37, 0x1c, 0x00, 0x00, 0x00, 0x20, 0x00, 0x00, 0x00
, 0x01, 0x00, 0x00, 0x00, 0x00, 0x00, 0x06, 0x00, 0x08, 0x00, 0x07, 0x00
, 0x06, 0x00, 0x00, 0x00, 0x00, 0x00, 0x00, 0x02, 0x01, 0x00, 0x00, 0x00
, 0x0f, 0x00, 0x00, 0x00, 0x01, 0x00, 0x00, 0x00, 0x0e, 0x00, 0x00, 0x00
, 0x00, 0x00, 0x0a, 0x00, 0x0c, 0x00, 0x00, 0x00, 0x08, 0x00, 0x04, 0x00
, 0x0a, 0x00, 0x00, 0x00, 0x08, 0x00, 0x00, 0x00, 0x0c, 0x00, 0x00, 0x00
, 0x01, 0x00, 0x00, 0x00, 0x0e, 0x00, 0x00, 0x00, 0x01, 0x00, 0x00, 0x00
, 0x00, 0x00, 0x00, 0x00, 0x01, 0x00, 0x00, 0x00, 0x22, 0x00, 0x00, 0x00
, 0x01, 0x00, 0x00, 0x00, 0x00, 0x00, 0x00, 0x00, 0x23, 0x00, 0x00, 0x00
, 0xb8, 0x10, 0x00, 0x00, 0x60, 0x10, 0x00, 0x00, 0x0c, 0x10, 0x00, 0x00
, 0xcc, 0x0f, 0x00, 0x00, 0x8c, 0x0f, 0x00, 0x00, 0x4c, 0x0f, 0x00, 0x00
, 0x10, 0x0f, 0x00, 0x00, 0xd4, 0x0e, 0x00, 0x00, 0x94, 0x0e, 0x00, 0x00
, 0x54, 0x0e, 0x00, 0x00, 0x14, 0x0e, 0x00, 0x00, 0xa4, 0x0d, 0x00, 0x00
, 0x3c, 0x0d, 0x00, 0x00, 0xe0, 0x0c, 0x00, 0x00, 0x68, 0x0c, 0x00, 0x00
, 0x00, 0x0c, 0x00, 0x00, 0x7c, 0x0b, 0x00, 0x00, 0x10, 0x0b, 0x00, 0x00
, 0x80, 0x0a, 0x00, 0x00, 0x14, 0x0a, 0x00, 0x00, 0xbc, 0x09, 0x00, 0x00
, 0x38, 0x09, 0x00, 0x00, 0xe8, 0x08, 0x00, 0x00, 0x00, 0x08, 0x00, 0x00
, 0x18, 0x07, 0x00, 0x00, 0x0c, 0x06, 0x00, 0x00, 0x10, 0x05, 0x00, 0x00
, 0x14, 0x04, 0x00, 0x00, 0x10, 0x03, 0x00, 0x00, 0x8c, 0x02, 0x00, 0x00
, 0x10, 0x02, 0x00, 0x00, 0x88, 0x01, 0x00, 0x00, 0xe4, 0x00, 0x00, 0x00
, 0x60, 0x00, 0x00, 0x00, 0x04, 0x00, 0x00, 0x00, 0xea, 0xef, 0xff, 0xff
, 0x00, 0x00, 0x00, 0x01, 0x14, 0x00, 0x00, 0x00, 0x1c, 0x00, 0x00, 0x00
, 0x1c, 0x00, 0x00, 0x00, 0x23, 0x00, 0x00, 0x00, 0x34, 0x00, 0x00, 0x00
, 0x02, 0x00, 0x00, 0x00, 0xff, 0xff, 0xff, 0xff, 0x01, 0x00, 0x00, 0x00
, 0xd0, 0xef, 0xff, 0xff, 0x1b, 0x00, 0x00, 0x00, 0x53, 0x74, 0x61, 0x74
, 0x65, 0x66, 0x75, 0x6c, 0x50, 0x61, 0x72, 0x74, 0x69, 0x74, 0x69, 0x6f
, 0x6e, 0x65, 0x64, 0x43, 0x61, 0x6c, 0x6c, 0x5f, 0x31, 0x3a, 0x30, 0x00
, 0x02, 0x00, 0x00, 0x00, 0x01, 0x00, 0x00, 0x00, 0x01, 0x00, 0x00, 0x00
, 0x5a, 0xf4, 0xff, 0xff, 0x00, 0x00, 0x00, 0x01, 0x18, 0x00, 0x00, 0x00
, 0x20, 0x00, 0x00, 0x00, 0x40, 0x00, 0x00, 0x00, 0x22, 0x00, 0x00, 0x00
, 0x00, 0x00, 0x00, 0x09, 0x58, 0x00, 0x00, 0x00, 0x02, 0x00, 0x00, 0x00
, 0xff, 0xff, 0xff, 0xff, 0x01, 0x00, 0x00, 0x00, 0x24, 0xf3, 0xff, 0xff
, 0x08, 0x00, 0x00, 0x00, 0x14, 0x00, 0x00, 0x00, 0x01, 0x00, 0x00, 0x00
, 0x80, 0xff, 0xff, 0xff, 0xff, 0xff, 0xff, 0xff, 0x00, 0x00, 0x00, 0x00
, 0x01, 0x00, 0x00, 0x00, 0x00, 0x00, 0x80, 0x3b, 0x1c, 0x00, 0x00, 0x00
, 0x53, 0x74, 0x61, 0x74, 0x65, 0x66, 0x75, 0x6c, 0x50, 0x61, 0x72, 0x74
, 0x69, 0x74, 0x69, 0x6f, 0x6e, 0x65, 0x64, 0x43, 0x61, 0x6c, 0x6c, 0x5f
, 0x31, 0x3a, 0x30, 0x31, 0x00, 0x00, 0x00, 0x00, 0x02, 0x00, 0x00, 0x00
, 0x01, 0x00, 0x00, 0x00, 0x01, 0x00, 0x00, 0x00, 0xda, 0xf4, 0xff, 0xff
, 0x00, 0x00, 0x00, 0x01, 0x18, 0x00, 0x00, 0x00, 0x20, 0x00, 0x00, 0x00
, 0x40, 0x00, 0x00, 0x00, 0x21, 0x00, 0x00, 0x00, 0x00, 0x00, 0x00, 0x09
, 0x78, 0x00, 0x00, 0x00, 0x02, 0x00, 0x00, 0x00, 0xff, 0xff, 0xff, 0xff
, 0x01, 0x00, 0x00, 0x00, 0xa4, 0xf3, 0xff, 0xff, 0x08, 0x00, 0x00, 0x00
, 0x14, 0x00, 0x00, 0x00, 0x01, 0x00, 0x00, 0x00, 0x1a, 0x00, 0x00, 0x00
, 0x00, 0x00, 0x00, 0x00, 0x00, 0x00, 0x00, 0x00, 0x01, 0x00, 0x00, 0x00
, 0x62, 0x14, 0x1f, 0x3d, 0x3c, 0x00, 0x00, 0x00, 0x73, 0x65, 0x71, 0x75
, 0x65, 0x6e, 0x74, 0x69, 0x61, 0x6c, 0x5f, 0x31, 0x5f, 0x31, 0x2f, 0x64
, 0x65, 0x6e, 0x73, 0x65, 0x5f, 0x31, 0x5f, 0x31, 0x2f, 0x4d, 0x61, 0x74
, 0x4d, 0x75, 0x6c, 0x3b, 0x73, 0x65, 0x71, 0x75, 0x65, 0x6e, 0x74, 0x69
, 0x61, 0x6c, 0x5f, 0x31, 0x5f, 0x31, 0x2f, 0x64, 0x65, 0x6e, 0x73, 0x65
, 0x5f, 0x31, 0x5f, 0x31, 0x2f, 0x41, 0x64, 0x64, 0x00, 0x00, 0x00, 0x00
, 0x02, 0x00, 0x00, 0x00, 0x01, 0x00, 0x00, 0x00, 0x01, 0x00, 0x00, 0x00
, 0x7a, 0xf5, 0xff, 0xff, 0x00, 0x00, 0x00, 0x01, 0x18, 0x00, 0x00, 0x00
, 0x20, 0x00, 0x00, 0x00, 0x3c, 0x00, 0x00, 0x00, 0x20, 0x00, 0x00, 0x00
, 0x00, 0x00, 0x00, 0x09, 0x5c, 0x00, 0x00, 0x00, 0x02, 0x00, 0x00, 0x00
, 0xff, 0xff, 0xff, 0xff, 0x08, 0x00, 0x00, 0x00, 0x44, 0xf4, 0xff, 0xff
, 0x08, 0x00, 0x00, 0x00, 0x10, 0x00, 0x00, 0x00, 0x01, 0x00, 0x00, 0x00
, 0x08, 0x00, 0x00, 0x00, 0x00, 0x00, 0x00, 0x00, 0x01, 0x00, 0x00, 0x00
, 0x15, 0x7d, 0xd2, 0x3b, 0x27, 0x00, 0x00, 0x00, 0x73, 0x65, 0x71, 0x75
, 0x65, 0x6e, 0x74, 0x69, 0x61, 0x6c, 0x5f, 0x31, 0x5f, 0x31, 0x2f, 0x6c
, 0x73, 0x74, 0x6d, 0x5f, 0x31, 0x5f, 0x31, 0x2f, 0x73, 0x74, 0x72, 0x69
, 0x64, 0x65, 0x64, 0x5f, 0x73, 0x6c, 0x69, 0x63, 0x65, 0x5f, 0x33, 0x00
, 0x02, 0x00, 0x00, 0x00, 0x01, 0x00, 0x00, 0x00, 0x08, 0x00, 0x00, 0x00
, 0xfe, 0xf5, 0xff, 0xff, 0x00, 0x00, 0x00, 0x01, 0x18, 0x00, 0x00, 0x00
, 0x24, 0x00, 0x00, 0x00, 0x44, 0x00, 0x00, 0x00, 0x1f, 0x00, 0x00, 0x00
, 0x00, 0x00, 0x00, 0x09, 0x4c, 0x00, 0x00, 0x00, 0x03, 0x00, 0x00, 0x00
, 0x01, 0x00, 0x00, 0x00, 0xff, 0xff, 0xff, 0xff, 0x08, 0x00, 0x00, 0x00
, 0xcc, 0xf4, 0xff, 0xff, 0x08, 0x00, 0x00, 0x00, 0x14, 0x00, 0x00, 0x00
, 0x01, 0x00, 0x00, 0x00, 0x08, 0x00, 0x00, 0x00, 0x00, 0x00, 0x00, 0x00
, 0x00, 0x00, 0x00, 0x00, 0x01, 0x00, 0x00, 0x00, 0x15, 0x7d, 0xd2, 0x3b
, 0x0d, 0x00, 0x00, 0x00, 0x74, 0x66, 0x6c, 0x2e, 0x71, 0x75, 0x61, 0x6e
, 0x74, 0x69, 0x7a, 0x65, 0x31, 0x00, 0x00, 0x00, 0x03, 0x00, 0x00, 0x00
, 0x01, 0x00, 0x00, 0x00, 0x01, 0x00, 0x00, 0x00, 0x08, 0x00, 0x00, 0x00
, 0x5e, 0xf2, 0xff, 0xff, 0x00, 0x00, 0x00, 0x01, 0x14, 0x00, 0x00, 0x00
, 0x20, 0x00, 0x00, 0x00, 0x20, 0x00, 0x00, 0x00, 0x1e, 0x00, 0x00, 0x00
, 0x58, 0x00, 0x00, 0x00, 0x03, 0x00, 0x00, 0x00, 0x01, 0x00, 0x00, 0x00
, 0xff, 0xff, 0xff, 0xff, 0x08, 0x00, 0x00, 0x00, 0x48, 0xf2, 0xff, 0xff
, 0x3a, 0x00, 0x00, 0x00, 0x73, 0x65, 0x71, 0x75, 0x65, 0x6e, 0x74, 0x69
, 0x61, 0x6c, 0x5f, 0x31, 0x5f, 0x31, 0x2f, 0x6c, 0x73, 0x74, 0x6d, 0x5f
, 0x31, 0x5f, 0x31, 0x2f, 0x54, 0x65, 0x6e, 0x73, 0x6f, 0x72, 0x41, 0x72
, 0x72, 0x61, 0x79, 0x56, 0x32, 0x53, 0x74, 0x61, 0x63, 0x6b, 0x2f, 0x54
, 0x65, 0x6e, 0x73, 0x6f, 0x72, 0x4c, 0x69, 0x73, 0x74, 0x53, 0x74, 0x61
, 0x63, 0x6b, 0x00, 0x00, 0x03, 0x00, 0x00, 0x00, 0x01, 0x00, 0x00, 0x00
, 0x01, 0x00, 0x00, 0x00, 0x08, 0x00, 0x00, 0x00, 0xde, 0xf2, 0xff, 0xff
, 0x00, 0x00, 0x00, 0x01, 0x14, 0x00, 0x00, 0x00, 0x20, 0x00, 0x00, 0x00
, 0x20, 0x00, 0x00, 0x00, 0x1d, 0x00, 0x00, 0x00, 0xd8, 0x00, 0x00, 0x00
, 0x03, 0x00, 0x00, 0x00, 0x1e, 0x00, 0x00, 0x00, 0xff, 0xff, 0xff, 0xff
, 0x02, 0x00, 0x00, 0x00, 0xc8, 0xf2, 0xff, 0xff, 0xb9, 0x00, 0x00, 0x00
, 0x73, 0x65, 0x71, 0x75, 0x65, 0x6e, 0x74, 0x69, 0x61, 0x6c, 0x5f, 0x31
, 0x5f, 0x31, 0x2f, 0x6c, 0x73, 0x74, 0x6d, 0x5f, 0x31, 0x5f, 0x31, 0x2f
, 0x77, 0x68, 0x69, 0x6c, 0x65, 0x3b, 0x73, 0x65, 0x71, 0x75, 0x65, 0x6e
, 0x74, 0x69, 0x61, 0x6c, 0x5f, 0x31, 0x5f, 0x31, 0x2f, 0x6c, 0x73, 0x74
, 0x6d, 0x5f, 0x31, 0x5f, 0x31, 0x2f, 0x77, 0x68, 0x69, 0x6c, 0x65, 0x31
, 0x3b, 0x73, 0x65, 0x71, 0x75, 0x65, 0x6e, 0x74, 0x69, 0x61, 0x6c, 0x5f
, 0x31, 0x5f, 0x31, 0x2f, 0x6c, 0x73, 0x74, 0x6d, 0x5f, 0x31, 0x5f, 0x31
, 0x2f, 0x77, 0x68, 0x69, 0x6c, 0x65, 0x32, 0x3b, 0x73, 0x65, 0x71, 0x75
, 0x65, 0x6e, 0x74, 0x69, 0x61, 0x6c, 0x5f, 0x31, 0x5f, 0x31, 0x2f, 0x6c
, 0x73, 0x74, 0x6d, 0x5f, 0x31, 0x5f, 0x31, 0x2f, 0x77, 0x68, 0x69, 0x6c
, 0x65, 0x33, 0x3b, 0x73, 0x65, 0x71, 0x75, 0x65, 0x6e, 0x74, 0x69, 0x61
, 0x6c, 0x5f, 0x31, 0x5f, 0x31, 0x2f, 0x6c, 0x73, 0x74, 0x6d, 0x5f, 0x31
, 0x5f, 0x31, 0x2f, 0x77, 0x68, 0x69, 0x6c, 0x65, 0x34, 0x3b, 0x73, 0x65
, 0x71, 0x75, 0x65, 0x6e, 0x74, 0x69, 0x61, 0x6c, 0x5f, 0x31, 0x5f, 0x31
, 0x2f, 0x6c, 0x73, 0x74, 0x6d, 0x5f, 0x31, 0x5f, 0x31, 0x2f, 0x77, 0x68
, 0x69, 0x6c, 0x65, 0x35, 0x35, 0x00, 0x00, 0x00, 0x03, 0x00, 0x00, 0x00
, 0x1e, 0x00, 0x00, 0x00, 0x01, 0x00, 0x00, 0x00, 0x02, 0x00, 0x00, 0x00
, 0xde, 0xf3, 0xff, 0xff, 0x00, 0x00, 0x00, 0x01, 0x14, 0x00, 0x00, 0x00
, 0x1c, 0x00, 0x00, 0x00, 0x1c, 0x00, 0x00, 0x00, 0x1c, 0x00, 0x00, 0x00
, 0xd4, 0x00, 0x00, 0x00, 0x02, 0x00, 0x00, 0x00, 0xff, 0xff, 0xff, 0xff
, 0x08, 0x00, 0x00, 0x00, 0xc4, 0xf3, 0xff, 0xff, 0xb9, 0x00, 0x00, 0x00
, 0x73, 0x65, 0x71, 0x75, 0x65, 0x6e, 0x74, 0x69, 0x61, 0x6c, 0x5f, 0x31
, 0x5f, 0x31, 0x2f, 0x6c, 0x73, 0x74, 0x6d, 0x5f, 0x31, 0x5f, 0x31, 0x2f
, 0x77, 0x68, 0x69, 0x6c, 0x65, 0x3b, 0x73, 0x65, 0x71, 0x75, 0x65, 0x6e
, 0x74, 0x69, 0x61, 0x6c, 0x5f, 0x31, 0x5f, 0x31, 0x2f, 0x6c, 0x73, 0x74
, 0x6d, 0x5f, 0x31, 0x5f, 0x31, 0x2f, 0x77, 0x68, 0x69, 0x6c, 0x65, 0x31
, 0x3b, 0x73, 0x65, 0x71, 0x75, 0x65, 0x6e, 0x74, 0x69, 0x61, 0x6c, 0x5f
, 0x31, 0x5f, 0x31, 0x2f, 0x6c, 0x73, 0x74, 0x6d, 0x5f, 0x31, 0x5f, 0x31
, 0x2f, 0x77, 0x68, 0x69, 0x6c, 0x65, 0x32, 0x3b, 0x73, 0x65, 0x71, 0x75
, 0x65, 0x6e, 0x74, 0x69, 0x61, 0x6c, 0x5f, 0x31, 0x5f, 0x31, 0x2f, 0x6c
, 0x73, 0x74, 0x6d, 0x5f, 0x31, 0x5f, 0x31, 0x2f, 0x77, 0x68, 0x69, 0x6c
, 0x65, 0x33, 0x3b, 0x73, 0x65, 0x71, 0x75, 0x65, 0x6e, 0x74, 0x69, 0x61
, 0x6c, 0x5f, 0x31, 0x5f, 0x31, 0x2f, 0x6c, 0x73, 0x74, 0x6d, 0x5f, 0x31
, 0x5f, 0x31, 0x2f, 0x77, 0x68, 0x69, 0x6c, 0x65, 0x34, 0x3b, 0x73, 0x65
, 0x71, 0x75, 0x65, 0x6e, 0x74, 0x69, 0x61, 0x6c, 0x5f, 0x31, 0x5f, 0x31
, 0x2f, 0x6c, 0x73, 0x74, 0x6d, 0x5f, 0x31, 0x5f, 0x31, 0x2f, 0x77, 0x68
, 0x69, 0x6c, 0x65, 0x35, 0x34, 0x00, 0x00, 0x00, 0x02, 0x00, 0x00, 0x00
, 0x01, 0x00, 0x00, 0x00, 0x08, 0x00, 0x00, 0x00, 0xd6, 0xf4, 0xff, 0xff
, 0x00, 0x00, 0x00, 0x01, 0x14, 0x00, 0x00, 0x00, 0x1c, 0x00, 0x00, 0x00
, 0x1c, 0x00, 0x00, 0x00, 0x1b, 0x00, 0x00, 0x00, 0xd4, 0x00, 0x00, 0x00
, 0x02, 0x00, 0x00, 0x00, 0xff, 0xff, 0xff, 0xff, 0x08, 0x00, 0x00, 0x00
, 0xbc, 0xf4, 0xff, 0xff, 0xb9, 0x00, 0x00, 0x00, 0x73, 0x65, 0x71, 0x75
, 0x65, 0x6e, 0x74, 0x69, 0x61, 0x6c, 0x5f, 0x31, 0x5f, 0x31, 0x2f, 0x6c
, 0x73, 0x74, 0x6d, 0x5f, 0x31, 0x5f, 0x31, 0x2f, 0x77, 0x68, 0x69, 0x6c
, 0x65, 0x3b, 0x73, 0x65, 0x71, 0x75, 0x65, 0x6e, 0x74, 0x69, 0x61, 0x6c
, 0x5f, 0x31, 0x5f, 0x31, 0x2f, 0x6c, 0x73, 0x74, 0x6d, 0x5f, 0x31, 0x5f
, 0x31, 0x2f, 0x77, 0x68, 0x69, 0x6c, 0x65, 0x31, 0x3b, 0x73, 0x65, 0x71
, 0x75, 0x65, 0x6e, 0x74, 0x69, 0x61, 0x6c, 0x5f, 0x31, 0x5f, 0x31, 0x2f
, 0x6c, 0x73, 0x74, 0x6d, 0x5f, 0x31, 0x5f, 0x31, 0x2f, 0x77, 0x68, 0x69
, 0x6c, 0x65, 0x32, 0x3b, 0x73, 0x65, 0x71, 0x75, 0x65, 0x6e, 0x74, 0x69
, 0x61, 0x6c, 0x5f, 0x31, 0x5f, 0x31, 0x2f, 0x6c, 0x73, 0x74, 0x6d, 0x5f
, 0x31, 0x5f, 0x31, 0x2f, 0x77, 0x68, 0x69, 0x6c, 0x65, 0x33, 0x3b, 0x73
, 0x65, 0x71, 0x75, 0x65, 0x6e, 0x74, 0x69, 0x61, 0x6c, 0x5f, 0x31, 0x5f
, 0x31, 0x2f, 0x6c, 0x73, 0x74, 0x6d, 0x5f, 0x31, 0x5f, 0x31, 0x2f, 0x77
, 0x68, 0x69, 0x6c, 0x65, 0x34, 0x3b, 0x73, 0x65, 0x71, 0x75, 0x65, 0x6e
, 0x74, 0x69, 0x61, 0x6c, 0x5f, 0x31, 0x5f, 0x31, 0x2f, 0x6c, 0x73, 0x74
, 0x6d, 0x5f, 0x31, 0x5f, 0x31, 0x2f, 0x77, 0x68, 0x69, 0x6c, 0x65, 0x35
, 0x33, 0x00, 0x00, 0x00, 0x02, 0x00, 0x00, 0x00, 0x01, 0x00, 0x00, 0x00
, 0x08, 0x00, 0x00, 0x00, 0xcc, 0xfa, 0xff, 0xff, 0x1c, 0x00, 0x00, 0x00
, 0x00, 0x00, 0x00, 0x01, 0x34, 0x00, 0x00, 0x00, 0x34, 0x00, 0x00, 0x00
, 0x1a, 0x00, 0x00, 0x00, 0x00, 0x00, 0x00, 0x0e, 0xe8, 0x00, 0x00, 0x00
, 0x01, 0x00, 0x00, 0x00, 0x04, 0x00, 0x00, 0x00, 0xb2, 0xfa, 0xff, 0xff
, 0x00, 0x00, 0x00, 0x01, 0x04, 0x00, 0x00, 0x00, 0x02, 0x00, 0x00, 0x00
, 0x00, 0x00, 0x00, 0x00, 0x08, 0x00, 0x00, 0x00, 0xcc, 0xf5, 0xff, 0xff
, 0xb9, 0x00, 0x00, 0x00, 0x73, 0x65, 0x71, 0x75, 0x65, 0x6e, 0x74, 0x69
, 0x61, 0x6c, 0x5f, 0x31, 0x5f, 0x31, 0x2f, 0x6c, 0x73, 0x74, 0x6d, 0x5f
, 0x31, 0x5f, 0x31, 0x2f, 0x77, 0x68, 0x69, 0x6c, 0x65, 0x3b, 0x73, 0x65
, 0x71, 0x75, 0x65, 0x6e, 0x74, 0x69, 0x61, 0x6c, 0x5f, 0x31, 0x5f, 0x31
, 0x2f, 0x6c, 0x73, 0x74, 0x6d, 0x5f, 0x31, 0x5f, 0x31, 0x2f, 0x77, 0x68
, 0x69, 0x6c, 0x65, 0x31, 0x3b, 0x73, 0x65, 0x71, 0x75, 0x65, 0x6e, 0x74
, 0x69, 0x61, 0x6c, 0x5f, 0x31, 0x5f, 0x31, 0x2f, 0x6c, 0x73, 0x74, 0x6d
, 0x5f, 0x31, 0x5f, 0x31, 0x2f, 0x77, 0x68, 0x69, 0x6c, 0x65, 0x32, 0x3b
, 0x73, 0x65, 0x71, 0x75, 0x65, 0x6e, 0x74, 0x69, 0x61, 0x6c, 0x5f, 0x31
, 0x5f, 0x31, 0x2f, 0x6c, 0x73, 0x74, 0x6d, 0x5f, 0x31, 0x5f, 0x31, 0x2f
, 0x77, 0x68, 0x69, 0x6c, 0x65, 0x33, 0x3b, 0x73, 0x65, 0x71, 0x75, 0x65
, 0x6e, 0x74, 0x69, 0x61, 0x6c, 0x5f, 0x31, 0x5f, 0x31, 0x2f, 0x6c, 0x73
, 0x74, 0x6d, 0x5f, 0x31, 0x5f, 0x31, 0x2f, 0x77, 0x68, 0x69, 0x6c, 0x65
, 0x34, 0x3b, 0x73, 0x65, 0x71, 0x75, 0x65, 0x6e, 0x74, 0x69, 0x61, 0x6c
, 0x5f, 0x31, 0x5f, 0x31, 0x2f, 0x6c, 0x73, 0x74, 0x6d, 0x5f, 0x31, 0x5f
, 0x31, 0x2f, 0x77, 0x68, 0x69, 0x6c, 0x65, 0x35, 0x32, 0x00, 0x00, 0x00
, 0x00, 0x00, 0x00, 0x00, 0x2a, 0xf7, 0xff, 0xff, 0x00, 0x00, 0x00, 0x01
, 0x14, 0x00, 0x00, 0x00, 0x14, 0x00, 0x00, 0x00, 0x19, 0x00, 0x00, 0x00
, 0x00, 0x00, 0x00, 0x02, 0xc8, 0x00, 0x00, 0x00, 0xb0, 0xf6, 0xff, 0xff
, 0xb9, 0x00, 0x00, 0x00, 0x73, 0x65, 0x71, 0x75, 0x65, 0x6e, 0x74, 0x69
, 0x61, 0x6c, 0x5f, 0x31, 0x5f, 0x31, 0x2f, 0x6c, 0x73, 0x74, 0x6d, 0x5f
, 0x31, 0x5f, 0x31, 0x2f, 0x77, 0x68, 0x69, 0x6c, 0x65, 0x3b, 0x73, 0x65
, 0x71, 0x75, 0x65, 0x6e, 0x74, 0x69, 0x61, 0x6c, 0x5f, 0x31, 0x5f, 0x31
, 0x2f, 0x6c, 0x73, 0x74, 0x6d, 0x5f, 0x31, 0x5f, 0x31, 0x2f, 0x77, 0x68
, 0x69, 0x6c, 0x65, 0x31, 0x3b, 0x73, 0x65, 0x71, 0x75, 0x65, 0x6e, 0x74
, 0x69, 0x61, 0x6c, 0x5f, 0x31, 0x5f, 0x31, 0x2f, 0x6c, 0x73, 0x74, 0x6d
, 0x5f, 0x31, 0x5f, 0x31, 0x2f, 0x77, 0x68, 0x69, 0x6c, 0x65, 0x32, 0x3b
, 0x73, 0x65, 0x71, 0x75, 0x65, 0x6e, 0x74, 0x69, 0x61, 0x6c, 0x5f, 0x31
, 0x5f, 0x31, 0x2f, 0x6c, 0x73, 0x74, 0x6d, 0x5f, 0x31, 0x5f, 0x31, 0x2f
, 0x77, 0x68, 0x69, 0x6c, 0x65, 0x33, 0x3b, 0x73, 0x65, 0x71, 0x75, 0x65
, 0x6e, 0x74, 0x69, 0x61, 0x6c, 0x5f, 0x31, 0x5f, 0x31, 0x2f, 0x6c, 0x73
, 0x74, 0x6d, 0x5f, 0x31, 0x5f, 0x31, 0x2f, 0x77, 0x68, 0x69, 0x6c, 0x65
, 0x34, 0x3b, 0x73, 0x65, 0x71, 0x75, 0x65, 0x6e, 0x74, 0x69, 0x61, 0x6c
, 0x5f, 0x31, 0x5f, 0x31, 0x2f, 0x6c, 0x73, 0x74, 0x6d, 0x5f, 0x31, 0x5f
, 0x31, 0x2f, 0x77, 0x68, 0x69, 0x6c, 0x65, 0x35, 0x31, 0x00, 0x00, 0x00
, 0x00, 0x00, 0x00, 0x00, 0x0e, 0xf8, 0xff, 0xff, 0x00, 0x00, 0x00, 0x01
, 0x14, 0x00, 0x00, 0x00, 0x14, 0x00, 0x00, 0x00, 0x18, 0x00, 0x00, 0x00
, 0x00, 0x00, 0x00, 0x02, 0xc8, 0x00, 0x00, 0x00, 0x94, 0xf7, 0xff, 0xff
, 0xb8, 0x00, 0x00, 0x00, 0x73, 0x65, 0x71, 0x75, 0x65, 0x6e, 0x74, 0x69
, 0x61, 0x6c, 0x5f, 0x31, 0x5f, 0x31, 0x2f, 0x6c, 0x73, 0x74, 0x6d, 0x5f
, 0x31, 0x5f, 0x31, 0x2f, 0x77, 0x68, 0x69, 0x6c, 0x65, 0x3b, 0x73, 0x65
, 0x71, 0x75, 0x65, 0x6e, 0x74, 0x69, 0x61, 0x6c, 0x5f, 0x31, 0x5f, 0x31
, 0x2f, 0x6c, 0x73, 0x74, 0x6d, 0x5f, 0x31, 0x5f, 0x31, 0x2f, 0x77, 0x68
, 0x69, 0x6c, 0x65, 0x31, 0x3b, 0x73, 0x65, 0x71, 0x75, 0x65, 0x6e, 0x74
, 0x69, 0x61, 0x6c, 0x5f, 0x31, 0x5f, 0x31, 0x2f, 0x6c, 0x73, 0x74, 0x6d
, 0x5f, 0x31, 0x5f, 0x31, 0x2f, 0x77, 0x68, 0x69, 0x6c, 0x65, 0x32, 0x3b
, 0x73, 0x65, 0x71, 0x75, 0x65, 0x6e, 0x74, 0x69, 0x61, 0x6c, 0x5f, 0x31
, 0x5f, 0x31, 0x2f, 0x6c, 0x73, 0x74, 0x6d, 0x5f, 0x31, 0x5f, 0x31, 0x2f
, 0x77, 0x68, 0x69, 0x6c, 0x65, 0x33, 0x3b, 0x73, 0x65, 0x71, 0x75, 0x65
, 0x6e, 0x74, 0x69, 0x61, 0x6c, 0x5f, 0x31, 0x5f, 0x31, 0x2f, 0x6c, 0x73
, 0x74, 0x6d, 0x5f, 0x31, 0x5f, 0x31, 0x2f, 0x77, 0x68, 0x69, 0x6c, 0x65
, 0x34, 0x3b, 0x73, 0x65, 0x71, 0x75, 0x65, 0x6e, 0x74, 0x69, 0x61, 0x6c
, 0x5f, 0x31, 0x5f, 0x31, 0x2f, 0x6c, 0x73, 0x74, 0x6d, 0x5f, 0x31, 0x5f
, 0x31, 0x2f, 0x77, 0x68, 0x69, 0x6c, 0x65, 0x35, 0x00, 0x00, 0x00, 0x00
, 0x00, 0x00, 0x00, 0x00, 0x9e, 0xf8, 0xff, 0xff, 0x00, 0x00, 0x00, 0x01
, 0x14, 0x00, 0x00, 0x00, 0x1c, 0x00, 0x00, 0x00, 0x1c, 0x00, 0x00, 0x00
, 0x17, 0x00, 0x00, 0x00, 0x28, 0x00, 0x00, 0x00, 0x02, 0x00, 0x00, 0x00
, 0xff, 0xff, 0xff, 0xff, 0x08, 0x00, 0x00, 0x00, 0x84, 0xf8, 0xff, 0xff
, 0x0e, 0x00, 0x00, 0x00, 0x74, 0x66, 0x6c, 0x2e, 0x64, 0x65, 0x71, 0x75
, 0x61, 0x6e, 0x74, 0x69, 0x7a, 0x65, 0x00, 0x00, 0x02, 0x00, 0x00, 0x00
, 0x01, 0x00, 0x00, 0x00, 0x08, 0x00, 0x00, 0x00, 0x02, 0xfd, 0xff, 0xff
, 0x00, 0x00, 0x00, 0x01, 0x18, 0x00, 0x00, 0x00, 0x20, 0x00, 0x00, 0x00
, 0x40, 0x00, 0x00, 0x00, 0x16, 0x00, 0x00, 0x00, 0x00, 0x00, 0x00, 0x09
, 0x58, 0x00, 0x00, 0x00, 0x02, 0x00, 0x00, 0x00, 0xff, 0xff, 0xff, 0xff
, 0x08, 0x00, 0x00, 0x00, 0xcc, 0xfb, 0xff, 0xff, 0x08, 0x00, 0x00, 0x00
, 0x14, 0x00, 0x00, 0x00, 0x01, 0x00, 0x00, 0x00, 0x00, 0x00, 0x00, 0x00
, 0x00, 0x00, 0x00, 0x00, 0x00, 0x00, 0x00, 0x00, 0x01, 0x00, 0x00, 0x00
, 0x7b, 0xbe, 0x06, 0x32, 0x1d, 0x00, 0x00, 0x00, 0x73, 0x65, 0x71, 0x75
, 0x65, 0x6e, 0x74, 0x69, 0x61, 0x6c, 0x5f, 0x31, 0x5f, 0x31, 0x2f, 0x6c
, 0x73, 0x74, 0x6d, 0x5f, 0x31, 0x5f, 0x31, 0x2f, 0x7a, 0x65, 0x72, 0x6f
, 0x73, 0x00, 0x00, 0x00, 0x02, 0x00, 0x00, 0x00, 0x01, 0x00, 0x00, 0x00
, 0x08, 0x00, 0x00, 0x00, 0xbe, 0xf9, 0xff, 0xff, 0x00, 0x00, 0x00, 0x01
, 0x14, 0x00, 0x00, 0x00, 0x14, 0x00, 0x00, 0x00, 0x15, 0x00, 0x00, 0x00
, 0x00, 0x00, 0x00, 0x02, 0x34, 0x00, 0x00, 0x00, 0x44, 0xf9, 0xff, 0xff
, 0x24, 0x00, 0x00, 0x00, 0x73, 0x65, 0x71, 0x75, 0x65, 0x6e, 0x74, 0x69
, 0x61, 0x6c, 0x5f, 0x31, 0x5f, 0x31, 0x2f, 0x6c, 0x73, 0x74, 0x6d, 0x5f
, 0x31, 0x5f, 0x31, 0x2f, 0x7a, 0x65, 0x72, 0x6f, 0x73, 0x2f, 0x70, 0x61
, 0x63, 0x6b, 0x65, 0x64, 0x00, 0x00, 0x00, 0x00, 0x01, 0x00, 0x00, 0x00
, 0x02, 0x00, 0x00, 0x00, 0xbe, 0xf9, 0xff, 0xff, 0x00, 0x00, 0x00, 0x01
, 0x14, 0x00, 0x00, 0x00, 0x20, 0x00, 0x00, 0x00, 0x20, 0x00, 0x00, 0x00
, 0x14, 0x00, 0x00, 0x00, 0x40, 0x00, 0x00, 0x00, 0x03, 0x00, 0x00, 0x00
, 0x1e, 0x00, 0x00, 0x00, 0xff, 0xff, 0xff, 0xff, 0x02, 0x00, 0x00, 0x00
, 0xa8, 0xf9, 0xff, 0xff, 0x22, 0x00, 0x00, 0x00, 0x73, 0x65, 0x71, 0x75
, 0x65, 0x6e, 0x74, 0x69, 0x61, 0x6c, 0x5f, 0x31, 0x5f, 0x31, 0x2f, 0x6c
, 0x73, 0x74, 0x6d, 0x5f, 0x31, 0x5f, 0x31, 0x2f, 0x74, 0x72, 0x61, 0x6e
, 0x73, 0x70, 0x6f, 0x73, 0x65, 0x31, 0x00, 0x00, 0x03, 0x00, 0x00, 0x00
, 0x1e, 0x00, 0x00, 0x00, 0x01, 0x00, 0x00, 0x00, 0x02, 0x00, 0x00, 0x00
, 0x3e, 0xfe, 0xff, 0xff, 0x00, 0x00, 0x00, 0x01, 0x18, 0x00, 0x00, 0x00
, 0x24, 0x00, 0x00, 0x00, 0x44, 0x00, 0x00, 0x00, 0x13, 0x00, 0x00, 0x00
, 0x00, 0x00, 0x00, 0x09, 0x60, 0x00, 0x00, 0x00, 0x03, 0x00, 0x00, 0x00
, 0x1e, 0x00, 0x00, 0x00, 0xff, 0xff, 0xff, 0xff, 0x02, 0x00, 0x00, 0x00
, 0x0c, 0xfd, 0xff, 0xff, 0x08, 0x00, 0x00, 0x00, 0x14, 0x00, 0x00, 0x00
, 0x01, 0x00, 0x00, 0x00, 0x80, 0xff, 0xff, 0xff, 0xff, 0xff, 0xff, 0xff
, 0x00, 0x00, 0x00, 0x00, 0x01, 0x00, 0x00, 0x00, 0x81, 0x80, 0x80, 0x3b
, 0x21, 0x00, 0x00, 0x00, 0x73, 0x65, 0x71, 0x75, 0x65, 0x6e, 0x74, 0x69
, 0x61, 0x6c, 0x5f, 0x31, 0x5f, 0x31, 0x2f, 0x6c, 0x73, 0x74, 0x6d, 0x5f
, 0x31, 0x5f, 0x31, 0x2f, 0x74, 0x72, 0x61, 0x6e, 0x73, 0x70, 0x6f, 0x73
, 0x65, 0x00, 0x00, 0x00, 0x03, 0x00, 0x00, 0x00, 0x1e, 0x00, 0x00, 0x00
, 0x01, 0x00, 0x00, 0x00, 0x02, 0x00, 0x00, 0x00, 0x06, 0xfb, 0xff, 0xff
, 0x00, 0x00, 0x00, 0x01, 0x14, 0x00, 0x00, 0x00, 0x14, 0x00, 0x00, 0x00
, 0x12, 0x00, 0x00, 0x00, 0x00, 0x00, 0x00, 0x02, 0x34, 0x00, 0x00, 0x00
, 0x8c, 0xfa, 0xff, 0xff, 0x25, 0x00, 0x00, 0x00, 0x73, 0x65, 0x71, 0x75
, 0x65, 0x6e, 0x74, 0x69, 0x61, 0x6c, 0x5f, 0x31, 0x5f, 0x31, 0x2f, 0x6c
, 0x73, 0x74, 0x6d, 0x5f, 0x31, 0x5f, 0x31, 0x2f, 0x73, 0x74, 0x72, 0x69
, 0x64, 0x65, 0x64, 0x5f, 0x73, 0x6c, 0x69, 0x63, 0x65, 0x00, 0x00, 0x00
, 0x00, 0x00, 0x00, 0x00, 0x18, 0x00, 0x20, 0x00, 0x1c, 0x00, 0x1b, 0x00
, 0x14, 0x00, 0x10, 0x00, 0x0c, 0x00, 0x00, 0x00, 0x00, 0x00, 0x00, 0x00
, 0x0b, 0x00, 0x04, 0x00, 0x18, 0x00, 0x00, 0x00, 0x1c, 0x00, 0x00, 0x00
, 0x00, 0x00, 0x00, 0x01, 0x40, 0x00, 0x00, 0x00, 0x40, 0x00, 0x00, 0x00
, 0x11, 0x00, 0x00, 0x00, 0x00, 0x00, 0x00, 0x0e, 0x60, 0x00, 0x00, 0x00
, 0x01, 0x00, 0x00, 0x00, 0x10, 0x00, 0x00, 0x00, 0x00, 0x00, 0x0a, 0x00
, 0x0c, 0x00, 0x08, 0x00, 0x00, 0x00, 0x07, 0x00, 0x0a, 0x00, 0x00, 0x00
, 0x00, 0x00, 0x00, 0x01, 0x04, 0x00, 0x00, 0x00, 0x02, 0x00, 0x00, 0x00
, 0x00, 0x00, 0x00, 0x00, 0x08, 0x00, 0x00, 0x00, 0x24, 0xfb, 0xff, 0xff
, 0x27, 0x00, 0x00, 0x00, 0x73, 0x65, 0x71, 0x75, 0x65, 0x6e, 0x74, 0x69
, 0x61, 0x6c, 0x5f, 0x31, 0x5f, 0x31, 0x2f, 0x6c, 0x73, 0x74, 0x6d, 0x5f
, 0x31, 0x5f, 0x31, 0x2f, 0x54, 0x65, 0x6e, 0x73, 0x6f, 0x72, 0x41, 0x72
, 0x72, 0x61, 0x79, 0x56, 0x32, 0x5f, 0x31, 0x00, 0x00, 0x00, 0x00, 0x00
, 0xee, 0xfb, 0xff, 0xff, 0x00, 0x00, 0x00, 0x01, 0x14, 0x00, 0x00, 0x00
, 0x14, 0x00, 0x00, 0x00, 0x10, 0x00, 0x00, 0x00, 0x00, 0x00, 0x00, 0x02
, 0x2c, 0x00, 0x00, 0x00, 0x74, 0xfb, 0xff, 0xff, 0x1d, 0x00, 0x00, 0x00
, 0x73, 0x65, 0x71, 0x75, 0x65, 0x6e, 0x74, 0x69, 0x61, 0x6c, 0x5f, 0x31
, 0x5f, 0x31, 0x2f, 0x6c, 0x73, 0x74, 0x6d, 0x5f, 0x31, 0x5f, 0x31, 0x2f
, 0x53, 0x68, 0x61, 0x70, 0x65, 0x00, 0x00, 0x00, 0x01, 0x00, 0x00, 0x00
, 0x03, 0x00, 0x00, 0x00, 0x00, 0x00, 0x16, 0x00, 0x20, 0x00, 0x1c, 0x00
, 0x1b, 0x00, 0x14, 0x00, 0x10, 0x00, 0x0c, 0x00, 0x00, 0x00, 0x00, 0x00
, 0x08, 0x00, 0x07, 0x00, 0x16, 0x00, 0x00, 0x00, 0x00, 0x00, 0x00, 0x01
, 0x18, 0x00, 0x00, 0x00, 0x24, 0x00, 0x00, 0x00, 0x40, 0x00, 0x00, 0x00
, 0x0f, 0x00, 0x00, 0x00, 0x00, 0x00, 0x00, 0x09, 0x48, 0x00, 0x00, 0x00
, 0x03, 0x00, 0x00, 0x00, 0xff, 0xff, 0xff, 0xff, 0x1e, 0x00, 0x00, 0x00
, 0x02, 0x00, 0x00, 0x00, 0xe4, 0xfe, 0xff, 0xff, 0x08, 0x00, 0x00, 0x00
, 0x10, 0x00, 0x00, 0x00, 0x01, 0x00, 0x00, 0x00, 0x80, 0xff, 0xff, 0xff
, 0xff, 0xff, 0xff, 0xff, 0x01, 0x00, 0x00, 0x00, 0x81, 0x80, 0x80, 0x3b
, 0x0c, 0x00, 0x00, 0x00, 0x74, 0x66, 0x6c, 0x2e, 0x71, 0x75, 0x61, 0x6e
, 0x74, 0x69, 0x7a, 0x65, 0x00, 0x00, 0x00, 0x00, 0x03, 0x00, 0x00, 0x00
, 0x01, 0x00, 0x00, 0x00, 0x1e, 0x00, 0x00, 0x00, 0x02, 0x00, 0x00, 0x00
, 0xc6, 0xfc, 0xff, 0xff, 0x00, 0x00, 0x00, 0x01, 0x14, 0x00, 0x00, 0x00
, 0x30, 0x00, 0x00, 0x00, 0x0e, 0x00, 0x00, 0x00, 0x00, 0x00, 0x00, 0x09
, 0x3c, 0x00, 0x00, 0x00, 0x44, 0xff, 0xff, 0xff, 0x08, 0x00, 0x00, 0x00
, 0x10, 0x00, 0x00, 0x00, 0x01, 0x00, 0x00, 0x00, 0x00, 0x00, 0x00, 0x00
, 0x00, 0x00, 0x00, 0x00, 0x01, 0x00, 0x00, 0x00, 0x7b, 0xbe, 0x06, 0x32
, 0x12, 0x00, 0x00, 0x00, 0x74, 0x66, 0x6c, 0x2e, 0x70, 0x73, 0x65, 0x75
, 0x64, 0x6f, 0x5f, 0x71, 0x63, 0x6f, 0x6e, 0x73, 0x74, 0x32, 0x00, 0x00
, 0x00, 0x00, 0x00, 0x00, 0x1e, 0xfd, 0xff, 0xff, 0x00, 0x00, 0x00, 0x01
, 0x14, 0x00, 0x00, 0x00, 0x34, 0x00, 0x00, 0x00, 0x0d, 0x00, 0x00, 0x00
, 0x00, 0x00, 0x00, 0x09, 0x40, 0x00, 0x00, 0x00, 0x9c, 0xff, 0xff, 0xff
, 0x08, 0x00, 0x00, 0x00, 0x14, 0x00, 0x00, 0x00, 0x01, 0x00, 0x00, 0x00
, 0x00, 0x00, 0x00, 0x00, 0x00, 0x00, 0x00, 0x00, 0x00, 0x00, 0x00, 0x00
, 0x01, 0x00, 0x00, 0x00, 0x41, 0x31, 0x3a, 0x3c, 0x12, 0x00, 0x00, 0x00
, 0x74, 0x66, 0x6c, 0x2e, 0x70, 0x73, 0x65, 0x75, 0x64, 0x6f, 0x5f, 0x71
, 0x63, 0x6f, 0x6e, 0x73, 0x74, 0x31, 0x00, 0x00, 0x02, 0x00, 0x00, 0x00
, 0x01, 0x00, 0x00, 0x00, 0x08, 0x00, 0x00, 0x00, 0x82, 0xfd, 0xff, 0xff
, 0x00, 0x00, 0x00, 0x01, 0x20, 0x00, 0x00, 0x00, 0x40, 0x00, 0x00, 0x00
, 0x0c, 0x00, 0x00, 0x00, 0x00, 0x00, 0x00, 0x02, 0x4c, 0x00, 0x00, 0x00
, 0x0c, 0x00, 0x0c, 0x00, 0x00, 0x00, 0x00, 0x00, 0x08, 0x00, 0x04, 0x00
, 0x0c, 0x00, 0x00, 0x00, 0x08, 0x00, 0x00, 0x00, 0x14, 0x00, 0x00, 0x00
, 0x01, 0x00, 0x00, 0x00, 0x00, 0x00, 0x00, 0x00, 0x00, 0x00, 0x00, 0x00
, 0x00, 0x00, 0x00, 0x00, 0x01, 0x00, 0x00, 0x00, 0x61, 0x17, 0x99, 0x38
, 0x11, 0x00, 0x00, 0x00, 0x74, 0x66, 0x6c, 0x2e, 0x70, 0x73, 0x65, 0x75
, 0x64, 0x6f, 0x5f, 0x71, 0x63, 0x6f, 0x6e, 0x73, 0x74, 0x00, 0x00, 0x00
, 0x01, 0x00, 0x00, 0x00, 0x01, 0x00, 0x00, 0x00, 0xee, 0xfd, 0xff, 0xff
, 0x00, 0x00, 0x00, 0x01, 0x14, 0x00, 0x00, 0x00, 0x14, 0x00, 0x00, 0x00
, 0x0b, 0x00, 0x00, 0x00, 0x00, 0x00, 0x00, 0x02, 0x1c, 0x00, 0x00, 0x00
, 0x74, 0xfd, 0xff, 0xff, 0x0f, 0x00, 0x00, 0x00, 0x61, 0x72, 0x69, 0x74
, 0x68, 0x2e, 0x63, 0x6f, 0x6e, 0x73, 0x74, 0x61, 0x6e, 0x74, 0x39, 0x00
, 0x01, 0x00, 0x00, 0x00, 0x03, 0x00, 0x00, 0x00, 0x2a, 0xfe, 0xff, 0xff
, 0x00, 0x00, 0x00, 0x01, 0x14, 0x00, 0x00, 0x00, 0x14, 0x00, 0x00, 0x00
, 0x0a, 0x00, 0x00, 0x00, 0x00, 0x00, 0x00, 0x02, 0x1c, 0x00, 0x00, 0x00
, 0xb0, 0xfd, 0xff, 0xff, 0x0f, 0x00, 0x00, 0x00, 0x61, 0x72, 0x69, 0x74
, 0x68, 0x2e, 0x63, 0x6f, 0x6e, 0x73, 0x74, 0x61, 0x6e, 0x74, 0x38, 0x00
, 0x01, 0x00, 0x00, 0x00, 0x03, 0x00, 0x00, 0x00, 0x66, 0xfe, 0xff, 0xff
, 0x00, 0x00, 0x00, 0x01, 0x14, 0x00, 0x00, 0x00, 0x14, 0x00, 0x00, 0x00
, 0x09, 0x00, 0x00, 0x00, 0x00, 0x00, 0x00, 0x02, 0x1c, 0x00, 0x00, 0x00
, 0xec, 0xfd, 0xff, 0xff, 0x0f, 0x00, 0x00, 0x00, 0x61, 0x72, 0x69, 0x74
, 0x68, 0x2e, 0x63, 0x6f, 0x6e, 0x73, 0x74, 0x61, 0x6e, 0x74, 0x37, 0x00
, 0x01, 0x00, 0x00, 0x00, 0x03, 0x00, 0x00, 0x00, 0xa2, 0xfe, 0xff, 0xff
, 0x00, 0x00, 0x00, 0x01, 0x14, 0x00, 0x00, 0x00, 0x14, 0x00, 0x00, 0x00
, 0x04, 0x00, 0x00, 0x00, 0x00, 0x00, 0x00, 0x02, 0x1c, 0x00, 0x00, 0x00
, 0x28, 0xfe, 0xff, 0xff, 0x0f, 0x00, 0x00, 0x00, 0x61, 0x72, 0x69, 0x74
, 0x68, 0x2e, 0x63, 0x6f, 0x6e, 0x73, 0x74, 0x61, 0x6e, 0x74, 0x36, 0x00
, 0x00, 0x00, 0x00, 0x00, 0xda, 0xfe, 0xff, 0xff, 0x00, 0x00, 0x00, 0x01
, 0x14, 0x00, 0x00, 0x00, 0x14, 0x00, 0x00, 0x00, 0x07, 0x00, 0x00, 0x00
, 0x00, 0x00, 0x00, 0x02, 0x1c, 0x00, 0x00, 0x00, 0x60, 0xfe, 0xff, 0xff
, 0x0f, 0x00, 0x00, 0x00, 0x61, 0x72, 0x69, 0x74, 0x68, 0x2e, 0x63, 0x6f
, 0x6e, 0x73, 0x74, 0x61, 0x6e, 0x74, 0x35, 0x00, 0x00, 0x00, 0x00, 0x00
, 0x12, 0xff, 0xff, 0xff, 0x00, 0x00, 0x00, 0x01, 0x14, 0x00, 0x00, 0x00
, 0x14, 0x00, 0x00, 0x00, 0x06, 0x00, 0x00, 0x00, 0x00, 0x00, 0x00, 0x02
, 0x1c, 0x00, 0x00, 0x00, 0x98, 0xfe, 0xff, 0xff, 0x0f, 0x00, 0x00, 0x00
, 0x61, 0x72, 0x69, 0x74, 0x68, 0x2e, 0x63, 0x6f, 0x6e, 0x73, 0x74, 0x61
, 0x6e, 0x74, 0x34, 0x00, 0x01, 0x00, 0x00, 0x00, 0x03, 0x00, 0x00, 0x00
, 0x4e, 0xff, 0xff, 0xff, 0x00, 0x00, 0x00, 0x01, 0x14, 0x00, 0x00, 0x00
, 0x14, 0x00, 0x00, 0x00, 0x03, 0x00, 0x00, 0x00, 0x00, 0x00, 0x00, 0x02
, 0x1c, 0x00, 0x00, 0x00, 0xd4, 0xfe, 0xff, 0xff, 0x0f, 0x00, 0x00, 0x00
, 0x61, 0x72, 0x69, 0x74, 0x68, 0x2e, 0x63, 0x6f, 0x6e, 0x73, 0x74, 0x61
, 0x6e, 0x74, 0x33, 0x00, 0x01, 0x00, 0x00, 0x00, 0x01, 0x00, 0x00, 0x00
, 0x8a, 0xff, 0xff, 0xff, 0x00, 0x00, 0x00, 0x01, 0x14, 0x00, 0x00, 0x00
, 0x14, 0x00, 0x00, 0x00, 0x04, 0x00, 0x00, 0x00, 0x00, 0x00, 0x00, 0x02
, 0x1c, 0x00, 0x00, 0x00, 0x10, 0xff, 0xff, 0xff, 0x0f, 0x00, 0x00, 0x00
, 0x61, 0x72, 0x69, 0x74, 0x68, 0x2e, 0x63, 0x6f, 0x6e, 0x73, 0x74, 0x61
, 0x6e, 0x74, 0x32, 0x00, 0x01, 0x00, 0x00, 0x00, 0x01, 0x00, 0x00, 0x00
, 0xc6, 0xff, 0xff, 0xff, 0x00, 0x00, 0x00, 0x01, 0x14, 0x00, 0x00, 0x00
, 0x14, 0x00, 0x00, 0x00, 0x03, 0x00, 0x00, 0x00, 0x00, 0x00, 0x00, 0x02
, 0x1c, 0x00, 0x00, 0x00, 0x4c, 0xff, 0xff, 0xff, 0x0f, 0x00, 0x00, 0x00
, 0x61, 0x72, 0x69, 0x74, 0x68, 0x2e, 0x63, 0x6f, 0x6e, 0x73, 0x74, 0x61
, 0x6e, 0x74, 0x31, 0x00, 0x00, 0x00, 0x00, 0x00, 0x00, 0x00, 0x16, 0x00
, 0x1c, 0x00, 0x18, 0x00, 0x17, 0x00, 0x10, 0x00, 0x0c, 0x00, 0x08, 0x00
, 0x00, 0x00, 0x00, 0x00, 0x00, 0x00, 0x07, 0x00, 0x16, 0x00, 0x00, 0x00
, 0x00, 0x00, 0x00, 0x01, 0x14, 0x00, 0x00, 0x00, 0x14, 0x00, 0x00, 0x00
, 0x02, 0x00, 0x00, 0x00, 0x00, 0x00, 0x00, 0x02, 0x1c, 0x00, 0x00, 0x00
, 0x9c, 0xff, 0xff, 0xff, 0x0e, 0x00, 0x00, 0x00, 0x61, 0x72, 0x69, 0x74
, 0x68, 0x2e, 0x63, 0x6f, 0x6e, 0x73, 0x74, 0x61, 0x6e, 0x74, 0x00, 0x00
, 0x01, 0x00, 0x00, 0x00, 0x02, 0x00, 0x00, 0x00, 0x00, 0x00, 0x16, 0x00
, 0x1c, 0x00, 0x18, 0x00, 0x00, 0x00, 0x14, 0x00, 0x10, 0x00, 0x0c, 0x00
, 0x00, 0x00, 0x00, 0x00, 0x08, 0x00, 0x07, 0x00, 0x16, 0x00, 0x00, 0x00
, 0x00, 0x00, 0x00, 0x01, 0x14, 0x00, 0x00, 0x00, 0x24, 0x00, 0x00, 0x00
, 0x24, 0x00, 0x00, 0x00, 0x01, 0x00, 0x00, 0x00, 0x44, 0x00, 0x00, 0x00
, 0x03, 0x00, 0x00, 0x00, 0xff, 0xff, 0xff, 0xff, 0x1e, 0x00, 0x00, 0x00
, 0x02, 0x00, 0x00, 0x00, 0x04, 0x00, 0x04, 0x00, 0x04, 0x00, 0x00, 0x00
, 0x20, 0x00, 0x00, 0x00, 0x73, 0x65, 0x72, 0x76, 0x69, 0x6e, 0x67, 0x5f
, 0x64, 0x65, 0x66, 0x61, 0x75, 0x6c, 0x74, 0x5f, 0x6b, 0x65, 0x72, 0x61
, 0x73, 0x5f, 0x74, 0x65, 0x6e, 0x73, 0x6f, 0x72, 0x5f, 0x34, 0x3a, 0x30
, 0x00, 0x00, 0x00, 0x00, 0x03, 0x00, 0x00, 0x00, 0x01, 0x00, 0x00, 0x00
, 0x1e, 0x00, 0x00, 0x00, 0x02, 0x00, 0x00, 0x00, 0x14, 0x00, 0x00, 0x00
, 0xec, 0x01, 0x00, 0x00, 0xd0, 0x01, 0x00, 0x00, 0xa0, 0x01, 0x00, 0x00
, 0x80, 0x01, 0x00, 0x00, 0x60, 0x01, 0x00, 0x00, 0x4c, 0x01, 0x00, 0x00
, 0x3c, 0x01, 0x00, 0x00, 0x28, 0x01, 0x00, 0x00, 0x18, 0x01, 0x00, 0x00
, 0xec, 0x00, 0x00, 0x00, 0xd8, 0x00, 0x00, 0x00, 0xc4, 0x00, 0x00, 0x00
, 0xb4, 0x00, 0x00, 0x00, 0xa4, 0x00, 0x00, 0x00, 0x98, 0x00, 0x00, 0x00
, 0x7c, 0x00, 0x00, 0x00, 0x5c, 0x00, 0x00, 0x00, 0x48, 0x00, 0x00, 0x00
, 0x34, 0x00, 0x00, 0x00, 0x04, 0x00, 0x00, 0x00, 0xb4, 0xfe, 0xff, 0xff
, 0x20, 0x00, 0x00, 0x00, 0x08, 0x00, 0x00, 0x00, 0x00, 0x00, 0x00, 0x20
, 0x15, 0x00, 0x00, 0x00, 0x46, 0x6c, 0x65, 0x78, 0x54, 0x65, 0x6e, 0x73
, 0x6f, 0x72, 0x4c, 0x69, 0x73, 0x74, 0x53, 0x65, 0x74, 0x49, 0x74, 0x65
, 0x6d, 0x00, 0x00, 0x00, 0xfc, 0xfe, 0xff, 0xff, 0x1c, 0x00, 0x00, 0x00
, 0x02, 0x00, 0x00, 0x00, 0x00, 0x00, 0x00, 0x1c, 0x0c, 0xff, 0xff, 0xff
, 0x12, 0x00, 0x00, 0x00, 0x02, 0x00, 0x00, 0x00, 0x00, 0x00, 0x00, 0x12
, 0x1c, 0xff, 0xff, 0xff, 0x31, 0x00, 0x00, 0x00, 0x02, 0x00, 0x00, 0x00
, 0x00, 0x00, 0x00, 0x31, 0x0c, 0x00, 0x0e, 0x00, 0x0d, 0x00, 0x00, 0x00
, 0x08, 0x00, 0x04, 0x00, 0x0c, 0x00, 0x00, 0x00, 0x24, 0x00, 0x00, 0x00
, 0x02, 0x00, 0x00, 0x00, 0x00, 0x24, 0x0a, 0x00, 0x08, 0x00, 0x00, 0x00
, 0x00, 0x00, 0x04, 0x00, 0x0a, 0x00, 0x00, 0x00, 0x02, 0x00, 0x00, 0x00
, 0xf8, 0xfe, 0xff, 0xff, 0x56, 0x00, 0x00, 0x00, 0x00, 0x00, 0x00, 0x56
, 0x04, 0xff, 0xff, 0xff, 0x3a, 0x00, 0x00, 0x00, 0x00, 0x00, 0x00, 0x3a
, 0x70, 0xff, 0xff, 0xff, 0x0e, 0x00, 0x00, 0x00, 0x02, 0x00, 0x00, 0x00
, 0x00, 0x00, 0x00, 0x0e, 0x80, 0xff, 0xff, 0xff, 0x09, 0x00, 0x00, 0x00
, 0x04, 0x00, 0x00, 0x00, 0x00, 0x00, 0x00, 0x09, 0x74, 0xff, 0xff, 0xff
, 0x20, 0x00, 0x00, 0x00, 0x08, 0x00, 0x00, 0x00, 0x00, 0x00, 0x00, 0x20
, 0x13, 0x00, 0x00, 0x00, 0x46, 0x6c, 0x65, 0x78, 0x54, 0x65, 0x6e, 0x73
, 0x6f, 0x72, 0x4c, 0x69, 0x73, 0x74, 0x53, 0x74, 0x61, 0x63, 0x6b, 0x00
, 0x58, 0xff, 0xff, 0xff, 0x77, 0x00, 0x00, 0x00, 0x00, 0x00, 0x00, 0x77
, 0xc4, 0xff, 0xff, 0xff, 0x5e, 0x00, 0x00, 0x00, 0x03, 0x00, 0x00, 0x00
, 0x00, 0x00, 0x00, 0x5e, 0x74, 0xff, 0xff, 0xff, 0x53, 0x00, 0x00, 0x00
, 0x00, 0x00, 0x00, 0x53, 0xe0, 0xff, 0xff, 0xff, 0x06, 0x00, 0x00, 0x00
, 0x02, 0x00, 0x00, 0x00, 0x00, 0x00, 0x00, 0x06, 0xf0, 0xff, 0xff, 0xff
, 0x27, 0x00, 0x00, 0x00, 0x02, 0x00, 0x00, 0x00, 0x00, 0x00, 0x00, 0x27
, 0x0c, 0x00, 0x10, 0x00, 0x0f, 0x00, 0x00, 0x00, 0x08, 0x00, 0x04, 0x00
, 0x0c, 0x00, 0x00, 0x00, 0x2d, 0x00, 0x00, 0x00, 0x02, 0x00, 0x00, 0x00
, 0x00, 0x00, 0x00, 0x2d, 0x0c, 0x00, 0x10, 0x00, 0x0f, 0x00, 0x08, 0x00
, 0x00, 0x00, 0x04, 0x00, 0x0c, 0x00, 0x00, 0x00, 0x20, 0x00, 0x00, 0x00
, 0x08, 0x00, 0x00, 0x00, 0x00, 0x00, 0x00, 0x20, 0x15, 0x00, 0x00, 0x00
, 0x46, 0x6c, 0x65, 0x78, 0x54, 0x65, 0x6e, 0x73, 0x6f, 0x72, 0x4c, 0x69
, 0x73, 0x74, 0x52, 0x65, 0x73, 0x65, 0x72, 0x76, 0x65, 0x00, 0x00, 0x00
, 0xf4, 0xff, 0xff, 0xff, 0x4d, 0x00, 0x00, 0x00, 0x00, 0x00, 0x00, 0x4d
, 0x0c, 0x00, 0x0c, 0x00, 0x0b, 0x00, 0x00, 0x00, 0x00, 0x00, 0x04, 0x00
, 0x0c, 0x00, 0x00, 0x00, 0x72, 0x00, 0x00, 0x00, 0x00, 0x00, 0x00, 0x72

};

unsigned int g_guardian_model_data_len = 16224;

#endif // GUARDIAN_MODEL_DATA_H
